<pad>	0
<unk>	0
<s>	0
</s>	0
▁t	-0
he	-1
▁a	-2
▁the	-3
in	-4
▁w	-5
▁የ	-6
▁o	-7
▁በ	-8
▁s	-9
▁አ	-10
re	-11
▁እ	-12
nd	-13
▁.	-14
▁b	-15
at	-16
er	-17
is	-18
ou	-19
▁h	-20
▁f	-21
▁,	-22
on	-23
▁c	-24
▁m	-25
▁and	-26
▁of	-27
it	-28
es	-29
▁to	-30
▁p	-31
ed	-32
or	-33
en	-34
▁መ	-35
▁d	-36
ing	-37
▁እን	-38
▁th	-39
ll	-40
▁ከ	-41
▁in	-42
an	-43
▁ይ	-44
ar	-45
▁ነ	-46
▁l	-47
▁g	-48
▁"	-49
▁y	-50
▁n	-51
om	-52
▁ለ	-53
▁he	-54
▁be	-55
ቸው	-56
▁ያ	-57
▁you	-58
as	-59
▁e	-60
▁ወ	-61
le	-62
▁1	-63
ion	-64
▁j	-65
ve	-66
▁re	-67
ho	-68
us	-69
▁ተ	-70
ot	-71
▁የሚ	-72
al	-73
▁i	-74
ic	-75
▁is	-76
▁that	-77
▁ስ	-78
ay	-79
▁for	-80
ut	-81
▁ሰ	-82
id	-83
ent	-84
▁ም	-85
se	-86
▁ha	-87
ow	-88
ill	-89
▁on	-90
ld	-91
im	-92
▁we	-93
ዎች	-94
▁ማ	-95
▁እንዲ	-96
od	-97
ላይ	-98
ah	-99
ith	-100
ur	-101
am	-102
ir	-103
ac	-104
▁እንደ	-105
▁u	-106
▁፡	-107
▁it	-108
▁will	-109
ver	-110
▁ነው	-111
▁pr	-112
her	-113
▁ላይ	-114
▁wh	-115
ly	-116
gh	-117
▁as	-118
▁with	-119
▁his	-120
▁not	-121
et	-122
ንድ	-123
▁;	-124
▁?	-125
▁ል	-126
▁የተ	-127
ውን	-128
▁ብ	-129
▁k	-130
▁ሁ	-131
st	-132
▁they	-133
▁2	-134
ation	-135
ነት	-136
ad	-137
▁an	-138
▁je	-139
ri	-140
▁st	-141
op	-142
ሆነ	-143
ችን	-144
ce	-145
▁ው	-146
▁fr	-147
▁was	-148
▁jeho	-149
ችሁ	-150
▁ወደ	-151
ct	-152
▁በመ	-153
ዚህ	-154
th	-155
vah	-156
▁jehovah	-157
▁ደ	-158
▁me	-159
ለው	-160
▁ት	-161
ንም	-162
ght	-163
all	-164
▁de	-165
▁(	-166
▁all	-167
በት	-168
▁ግ	-169
ess	-170
በር	-171
▁ባ	-172
▁who	-173
ra	-174
▁from	-175
ጊዜ	-176
ak	-177
▁them	-178
▁him	-179
▁your	-180
▁ነገ	-181
▁se	-182
▁god	-183
▁have	-184
▁sh	-185
ers	-186
ምላ	-187
il	-188
▁are	-189
ul	-190
▁con	-191
▁com	-192
and	-193
ድር	-194
ist	-195
▁sa	-196
el	-197
▁do	-198
▁ጊዜ	-199
▁አን	-200
ain	-201
▁li	-202
▁whe	-203
nt	-204
ord	-205
ore	-206
▁ሲ	-207
▁or	-208
▁'	-209
ምላክ	-210
est	-211
▁ጥ	-212
▁so	-213
▁ስለ	-214
▁ሁሉ	-215
▁ch	-216
▁this	-217
ህዌ	-218
ould	-219
ሆን	-220
▁by	-221
▁their	-222
▁ይህ	-223
▁ቀ	-224
▁ነበር	-225
▁but	-226
▁)	-227
▁አይ	-228
▁ዘ	-229
ሆኑ	-230
▁ጋ	-231
▁በአ	-232
▁my	-233
▁አስ	-234
▁r	-235
▁ne	-236
፡፡	-237
▁go	-238
▁what	-239
▁at	-240
▁3	-241
▁ex	-242
ble	-243
▁በእ	-244
▁ክ	-245
ዚያ	-246
▁su	-247
ment	-248
▁sp	-249
pp	-250
ስጥ	-251
ደር	-252
ትን	-253
▁መን	-254
▁ታ	-255
▁pe	-256
▁us	-257
▁የአ	-258
▁ቅ	-259
ter	-260
ant	-261
▁የሚያ	-262
ዋል	-263
ge	-264
ven	-265
os	-266
▁al	-267
▁ጋር	-268
ለት	-269
▁ab	-270
▁man	-271
res	-272
ch	-273
red	-274
▁በተ	-275
▁ለመ	-276
▁ኢ	-277
▁ውስጥ	-278
▁one	-279
ose	-280
▁when	-281
▁እነ	-282
▁ሰዎች	-283
▁የመ	-284
fe	-285
▁ሊ	-286
▁ነገር	-287
ሪያ	-288
▁ሰው	-289
ity	-290
▁were	-291
▁ቤ	-292
▁እና	-293
▁ገ	-294
ድረ	-295
▁አለ	-296
ame	-297
▁said	-298
▁wor	-299
ያን	-300
ive	-301
▁ግን	-302
▁up	-303
ለሁ	-304
ቸውን	-305
▁የም	-306
ate	-307
▁peop	-308
ደረ	-309
▁lo	-310
pt	-311
▁ሃ	-312
ong	-313
▁bec	-314
▁ለማ	-315
▁has	-316
▁ሆ	-317
ard	-318
▁br	-319
▁there	-320
ላል	-321
ust	-322
▁our	-323
▁እንዲህ	-324
▁ፍ	-325
▁ን	-326
▁people	-327
art	-328
ስራ	-329
ud	-330
ይም	-331
▁v	-332
ake	-333
▁out	-334
በረ	-335
ie	-336
▁pro	-337
▁le	-338
ቶች	-339
ome	-340
▁አምላክ	-341
ok	-342
iv	-343
ተኛ	-344
▁had	-345
▁tr	-346
▁እንዳ	-347
ies	-348
▁am	-349
ig	-350
ስት	-351
ol	-352
▁በማ	-353
out	-354
ገል	-355
ings	-356
ous	-357
▁ህ	-358
▁ጠ	-359
▁ሳ	-360
ላቸው	-361
▁say	-362
▁ያህዌ	-363
▁4	-364
▁ar	-365
ሮች	-366
▁አንድ	-367
ናል	-368
▁can	-369
ረት	-370
▁ፈ	-371
ንተ	-372
ans	-373
▁ወይም	-374
መለ	-375
ውም	-376
ther	-377
▁ከእ	-378
▁ቢ	-379
ለም	-380
ci	-381
▁dis	-382
▁how	-383
▁if	-384
▁በሚ	-385
▁ምን	-386
▁son	-387
▁አል	-388
▁ሌ	-389
qu	-390
▁ag	-391
▁ካ	-392
one	-393
▁እንደሚ	-394
▁then	-395
ርስ	-396
▁ደግ	-397
ab	-398
um	-399
ort	-400
▁day	-401
00	-402
ear	-403
ኤል	-404
▁int	-405
ስተ	-406
▁የማ	-407
ንና	-408
em	-409
ሱም	-410
▁af	-411
ich	-412
▁king	-413
▁ቅዱ	-414
▁ደግሞ	-415
ካከ	-416
▁those	-417
ገባ	-418
▁no	-419
ind	-420
▁የእ	-421
if	-422
ice	-423
▁tim	-424
aus	-425
pl	-426
▁ser	-427
▁ያለ	-428
▁may	-429
▁she	-430
▁ከተ	-431
ness	-432
ናገ	-433
▁kn	-434
▁5	-435
▁shall	-436
▁ac	-437
▁un	-438
ace	-439
ሱስ	-440
ast	-441
ፊት	-442
ke	-443
ድን	-444
የሱስ	-445
other	-446
ኋላ	-447
▁እንዲሁ	-448
▁off	-449
so	-450
ገድ	-451
▁መል	-452
ight	-453
sel	-454
▁ልጆ	-455
▁other	-456
▁እር	-457
▁እስ	-458
▁unt	-459
▁which	-460
▁her	-461
▁“	-462
our	-463
▁pl	-464
▁ቅዱስ	-465
ound	-466
▁!	-467
▁jes	-468
▁would	-469
reat	-470
▁ጉ	-471
ሖዋ	-472
ውያን	-473
ቃል	-474
fore	-475
ine	-476
▁jesus	-477
ከተ	-478
▁ad	-479
ቱን	-480
ause	-481
ather	-482
▁በዚህ	-483
▁res	-484
ath	-485
ild	-486
rael	-487
▁israel	-488
▁en	-489
▁lord	-490
ሰማ	-491
▁ከአ	-492
▁እንዲሁም	-493
cl	-494
▁አመ	-495
▁did	-496
ዚያም	-497
▁ና	-498
ible	-499
ል።	-500
▁በኋላ	-501
በሩ	-502
ዳን	-503
▁know	-504
▁እኔ	-505
▁co	-506
ፈል	-507
▁ምክ	-508
ach	-509
▁6	-510
▁ከመ	-511
▁about	-512
ough	-513
are	-514
ጽሃ	-515
ect	-516
ለን	-517
ያህዌ	-518
ያስ	-519
▁ራ	-520
▁im	-521
▁ሕ	-522
ved	-523
▁over	-524
ide	-525
ep	-526
▁again	-527
ions	-528
ሉት	-529
ure	-530
ጽሃፍ	-531
ue	-532
ሎች	-533
very	-534
▁ri	-535
▁ይህን	-536
▁ኢየሱስ	-537
ረው	-538
ይወ	-539
▁app	-540
▁any	-541
▁work	-542
▁አድር	-543
▁comm	-544
av	-545
ንያ	-546
▁የነ	-547
ations	-548
ህን	-549
▁ቤት	-550
▁ልጅ	-551
▁የሆነ	-552
ሳሌ	-553
▁እየ	-554
▁ear	-555
un	-556
ry	-557
ren	-558
▁በም	-559
ባቸው	-560
ount	-561
▁fe	-562
ኖር	-563
ጀመ	-564
▁into	-565
▁te	-566
iz	-567
▁19	-568
▁ሆነ	-569
ላችሁ	-570
nder	-571
▁የሰ	-572
ise	-573
ade	-574
ቅር	-575
▁ለእ	-576
▁cont	-577
▁also	-578
ትም	-579
▁fo	-580
ire	-581
▁because	-582
ትና	-583
▁ሆኖ	-584
ance	-585
▁should	-586
▁ቀን	-587
▁አላ	-588
▁after	-589
ag	-590
ገኘ	-591
▁unto	-592
▁acc	-593
ቀር	-594
▁time	-595
▁ዓ	-596
ምን	-597
own	-598
ouse	-599
ድረግ	-600
▁12	-601
▁like	-602
▁7	-603
urn	-604
ign	-605
ful	-606
መል	-607
ነሳ	-608
▁ሙ	-609
▁some	-610
ሰብ	-611
▁ይሁ	-612
ple	-613
▁አባ	-614
▁year	-615
▁ሥ	-616
▁before	-617
ish	-618
ካከል	-619
▁ከዚያም	-620
▁bible	-621
▁been	-622
▁bl	-623
ally	-624
▁serv	-625
▁ቃል	-626
ያው	-627
▁ባለ	-628
▁chr	-629
▁10	-630
▁house	-631
▁hand	-632
▁right	-633
ብር	-634
ree	-635
▁ይች	-636
▁ብዙ	-637
▁ዳ	-638
ራት	-639
ip	-640
▁ሚ	-641
▁see	-642
▁pre	-643
▁ልጆች	-644
▁made	-645
▁let	-646
oy	-647
▁land	-648
▁these	-649
አብ	-650
▁its	-651
ስራኤል	-652
▁now	-653
▁መካከል	-654
ated	-655
ግባ	-656
▁fa	-657
▁mo	-658
▁christ	-659
▁make	-660
▁11	-661
▁8	-662
age	-663
▁gr	-664
▁come	-665
▁reg	-666
ቱም	-667
ted	-668
▁hel	-669
ጌታ	-670
ታል	-671
ዎቹ	-672
ile	-673
▁word	-674
ችል	-675
▁cl	-676
▁thr	-677
መን	-678
▁15	-679
ለህ	-680
▁more	-681
ence	-682
▁9	-683
ራዊ	-684
▁per	-685
hed	-686
▁ምክንያ	-687
▁ንጉ	-688
▁father	-689
ከት	-690
ኔታ	-691
▁spe	-692
▁way	-693
▁against	-694
ስታ	-695
▁rem	-696
▁help	-697
▁things	-698
ves	-699
ress	-700
▁14	-701
ወጣ	-702
▁ወንድ	-703
▁men	-704
በል	-705
▁good	-706
▁sin	-707
▁13	-708
ዶች	-709
▁መንገድ	-710
ap	-711
ንግ	-712
▁life	-713
▁ቦ	-714
ማሪ	-715
▁ሁኔታ	-716
▁ለአ	-717
▁rep	-718
ዴት	-719
▁jud	-720
ary	-721
▁ke	-722
able	-723
way	-724
ናት	-725
▁አገል	-726
▁even	-727
ied	-728
▁እንደሆነ	-729
▁bel	-730
ርት	-731
ገለ	-732
▁ቁ	-733
▁child	-734
▁ድ	-735
ሱን	-736
wn	-737
▁des	-738
we	-739
▁down	-740
▁ይሖዋ	-741
ሆኑም	-742
▁under	-743
▁እነዚህ	-744
ግዚ	-745
act	-746
ልቅ	-747
ub	-748
end	-749
▁ናቸው	-750
ድረስ	-751
▁ክርስ	-752
ru	-753
ም።	-754
▁እንዴት	-755
▁every	-756
ግዚአብ	-757
ave	-758
▁than	-759
▁መስ	-760
▁ማን	-761
▁ስራ	-762
▁አንተ	-763
▁ነው።	-764
▁great	-765
▁sc	-766
▁many	-767
▁came	-768
▁earth	-769
ving	-770
ቸዋል	-771
ሔር	-772
▁ind	-773
ገው	-774
▁ምድር	-775
▁la	-776
▁አት	-777
ian	-778
ever	-779
▁ሴ	-780
irit	-781
ገር	-782
▁እንድ	-783
ለች	-784
▁wr	-785
ass	-786
ack	-787
▁tw	-788
▁እው	-789
ረዳ	-790
▁qu	-791
▁spirit	-792
ኞች	-793
ተው	-794
▁ሌላ	-795
▁exp	-796
▁ዘንድ	-797
▁ይሆ	-798
▁ho	-799
▁fir	-800
▁thou	-801
ቻቸው	-802
▁new	-803
▁act	-804
ሰጠ	-805
ites	-806
ላት	-807
ንን	-808
▁ቆ	-809
ግዚአብሔር	-810
les	-811
▁ሞ	-812
self	-813
▁17	-814
ህል	-815
መጣ	-816
▁20	-817
ia	-818
▁where	-819
ገኙ	-820
▁take	-821
▁በሙ	-822
▁አብ	-823
▁ነገሮች	-824
llow	-825
▁ብቻ	-826
▁ከፍ	-827
▁አካ	-828
▁እስከ	-829
ታቸው	-830
▁ች	-831
▁አሳ	-832
▁ይችላል	-833
ater	-834
▁give	-835
▁brother	-836
ጠቀ	-837
▁ድረስ	-838
▁ሆይ	-839
▁cons	-840
▁ዝ	-841
▁መንግ	-842
▁put	-843
▁እንዲያ	-844
ራቸው	-845
oin	-846
▁16	-847
ኖች	-848
▁ከዚህ	-849
▁መጽሃፍ	-850
ይወት	-851
▁አለው	-852
▁ጉዳ	-853
▁ob	-854
ወሰ	-855
uth	-856
ro	-857
▁rel	-858
▁faith	-859
ult	-860
▁ቦታ	-861
▁በእር	-862
ኝነት	-863
ሞች	-864
ታት	-865
▁pers	-866
▁just	-867
የት	-868
▁የአምላክ	-869
▁ያለው	-870
አት	-871
▁ላ	-872
▁ለም	-873
iah	-874
ራል	-875
▁part	-876
ked	-877
▁love	-878
▁ያስ	-879
ull	-880
▁sho	-881
ግብ	-882
▁through	-883
▁ወን	-884
▁heart	-885
▁ፊት	-886
▁ኤ	-887
ber	-888
gan	-889
▁ሳይ	-890
ጣም	-891
▁እጅ	-892
ሰው	-893
▁first	-894
▁እያ	-895
▁ጽ	-896
▁bo	-897
ዎችን	-898
ants	-899
ገኝ	-900
orn	-901
▁ር	-902
▁prop	-903
▁18	-904
▁በሙሉ	-905
ities	-906
▁does	-907
▁ዮ	-908
▁why	-909
lic	-910
oth	-911
▁call	-912
▁went	-913
▁ይሆናል	-914
ph	-915
ታችን	-916
ቦች	-917
▁two	-918
als	-919
▁የሚያስ	-920
ምና	-921
ale	-922
▁ህዝ	-923
▁ከሚ	-924
▁years	-925
▁ድር	-926
▁ph	-927
▁among	-928
ward	-929
ang	-930
▁could	-931
au	-932
oc	-933
ነው	-934
rib	-935
▁person	-936
▁አስተ	-937
ite	-938
▁አይደ	-939
ሩት	-940
▁በመሆኑም	-941
▁እናንተ	-942
▁att	-943
▁fore	-944
inist	-945
led	-946
dom	-947
ily	-948
▁dav	-949
▁የያህዌ	-950
ase	-951
ግጥ	-952
▁need	-953
▁የምት	-954
▁david	-955
▁sons	-956
▁ነበር።	-957
▁ጸ	-958
ረጃ	-959
▁«	-960
att	-961
ጣት	-962
▁በጣም	-963
▁children	-964
▁upon	-965
ፈጸ	-966
▁በዚያ	-967
▁መጠ	-968
▁መንፈ	-969
sh	-970
▁name	-971
itt	-972
ces	-973
aven	-974
▁bet	-975
▁such	-976
▁imp	-977
▁ስም	-978
▁place	-979
▁own	-980
▁አው	-981
ጨማሪ	-982
ob	-983
▁mar	-984
oss	-985
▁sec	-986
ምነት	-987
▁ሄ	-988
▁pres	-989
▁ሕዝ	-990
▁ent	-991
▁ከሆነ	-992
eth	-993
ርሱ	-994
▁z	-995
▁የኢ	-996
▁rec	-997
ሎት	-998
▁comp	-999
▁away	-1000
▁ድን	-1001
ert	-1002
▁ጌታ	-1003
ቢያ	-1004
ርያ	-1005
ባል	-1006
ments	-1007
ink	-1008
▁የወ	-1009
▁world	-1010
▁law	-1011
ቀረ	-1012
▁fam	-1013
▁ev	-1014
ጀመሪያ	-1015
▁እሱ	-1016
ልጣ	-1017
ክት	-1018
▁offer	-1019
▁look	-1020
ገን	-1021
▁አሁ	-1022
ious	-1023
▁must	-1024
ሉ።	-1025
▁አም	-1026
▁ምስ	-1027
▁become	-1028
▁እንጂ	-1029
ሰባ	-1030
arn	-1031
oses	-1032
▁em	-1033
▁only	-1034
ናንተ	-1035
ood	-1036
▁prov	-1037
▁hum	-1038
ስፋ	-1039
thi	-1040
ኛው	-1041
ction	-1042
ሳይ	-1043
▁city	-1044
ችኋ	-1045
▁pri	-1046
▁ተቀ	-1047
ጥር	-1048
ወቅ	-1049
▁heaven	-1050
▁says	-1051
ይሖዋ	-1052
▁gen	-1053
ought	-1054
▁end	-1055
ቹን	-1056
ረጋ	-1057
ደርግ	-1058
▁ዋ	-1059
▁ማለት	-1060
▁cr	-1061
▁belie	-1062
▁follow	-1063
ሠራ	-1064
▁መሰ	-1065
oh	-1066
ቶስ	-1067
▁አማ	-1068
ደርጋ	-1069
ኘት	-1070
ነበረ	-1071
▁ምንም	-1072
▁ረ	-1073
▁ክርስቲ	-1074
▁ለሚ	-1075
ሄድ	-1076
▁የነበረ	-1077
ህም	-1078
iven	-1079
ነሱ	-1080
▁ያህል	-1081
ern	-1082
ንስ	-1083
▁እኛ	-1084
▁ማድረግ	-1085
▁የበ	-1086
▁keep	-1087
ual	-1088
▁ኃ	-1089
▁በግ	-1090
vers	-1091
ምህ	-1092
▁ቤተ	-1093
▁ሲሆን	-1094
ርድ	-1095
ial	-1096
ors	-1097
ደው	-1098
▁ልብ	-1099
▁ያሉ	-1100
ል፤	-1101
ታው	-1102
ory	-1103
▁nor	-1104
▁saying	-1105
ዮች	-1106
..	-1107
▁ሆኖም	-1108
▁ዛ	-1109
▁resp	-1110
▁በር	-1111
ደረገ	-1112
▁days	-1113
ሳት	-1114
igh	-1115
▁ብሎ	-1116
get	-1117
▁በፊት	-1118
gy	-1119
▁ምሳሌ	-1120
ጨረ	-1121
▁moses	-1122
ባት	-1123
selves	-1124
for	-1125
ዘጋ	-1126
▁እንኳ	-1127
ልና	-1128
ንድን	-1129
▁አንዳ	-1130
ንቀ	-1131
▁ይላል	-1132
000	-1133
aught	-1134
ff	-1135
ቅም	-1136
ered	-1137
▁በደ	-1138
▁set	-1139
▁መጥ	-1140
ትዮ	-1141
ተኛው	-1142
▁show	-1143
hes	-1144
aking	-1145
▁thy	-1146
▁wom	-1147
▁wit	-1148
▁bring	-1149
ባቢ	-1150
▁መሆኑ	-1151
ft	-1152
ition	-1153
ላሉ	-1154
▁dec	-1155
▁ye	-1156
▁ሊያ	-1157
ሎስ	-1158
read	-1159
▁priest	-1160
vel	-1161
▁ethi	-1162
▁ይጠ	-1163
ical	-1164
ፋት	-1165
ጦር	-1166
▁fl	-1167
▁ይሁን	-1168
▁accord	-1169
▁ክፍ	-1170
ትዮጵ	-1171
▁jer	-1172
▁being	-1173
▁በሰ	-1174
▁might	-1175
▁በተጨማሪ	-1176
▁inst	-1177
▁ስለዚህ	-1178
ens	-1179
▁የሆኑ	-1180
▁ra	-1181
cept	-1182
▁well	-1183
ians	-1184
▁ethiop	-1185
▁ሌሎች	-1186
▁ከተማ	-1187
▁ወቅ	-1188
ባኤ	-1189
▁found	-1190
day	-1191
ግኘት	-1192
▁art	-1193
ዊት	-1194
ልን	-1195
▁ሥራ	-1196
▁መዝ	-1197
ሳዊ	-1198
ገኘው	-1199
መስ	-1200
▁gu	-1201
ችሁን	-1202
▁sent	-1203
▁በእርግጥ	-1204
▁pray	-1205
▁command	-1206
ዘብ	-1207
▁witness	-1208
▁መብ	-1209
▁ዕ	-1210
ችላ	-1211
▁ret	-1212
▁exam	-1213
▁car	-1214
▁ሽ	-1215
ግር	-1216
▁read	-1217
ons	-1218
▁ፈቃ	-1219
ዲያ	-1220
▁others	-1221
▁ያል	-1222
▁ነበሩ	-1223
▁በማለት	-1224
ችንን	-1225
ኩል	-1226
▁pa	-1227
▁while	-1228
ምሮ	-1229
▁ሲል	-1230
▁በኢ	-1231
ሆና	-1232
▁another	-1233
ፍራ	-1234
ates	-1235
▁ተጠ	-1236
▁ass	-1237
ives	-1238
▁sub	-1239
,000	-1240
▁minist	-1241
▁እየተ	-1242
ኛውም	-1243
መው	-1244
ሳብ	-1245
ሰጣ	-1246
▁took	-1247
ሉም	-1248
▁የማይ	-1249
ures	-1250
eous	-1251
▁በላይ	-1252
ኖሩ	-1253
ክል	-1254
▁death	-1255
▁kingdom	-1256
በው	-1257
ታዊ	-1258
ሥራ	-1259
ትዮጵያ	-1260
▁long	-1261
▁turn	-1262
▁count	-1263
▁each	-1264
መት	-1265
vern	-1266
▁ref	-1267
▁whom	-1268
▁የምን	-1269
ምር	-1270
ower	-1271
ሁዳ	-1272
ላቅ	-1273
▁በየ	-1274
ond	-1275
ገና	-1276
▁በሌ	-1277
▁አይደለም	-1278
▁ሃይ	-1279
ced	-1280
▁ኮ	-1281
ናገር	-1282
▁allh	-1283
▁ጎ	-1284
▁እሱም	-1285
▁እግዚአብሔር	-1286
▁govern	-1287
▁መመ	-1288
ከራ	-1289
▁ord	-1290
ብን	-1291
ክር	-1292
▁sl	-1293
▁ጨ	-1294
▁የተነሳ	-1295
▁holy	-1296
reg	-1297
ከና	-1298
▁given	-1299
ወስ	-1300
▁arm	-1301
ለያ	-1302
▁ዘመን	-1303
▁አገልጋ	-1304
▁inv	-1305
ቀው	-1306
ost	-1307
▁ወቅት	-1308
ሰራ	-1309
▁cle	-1310
▁stand	-1311
▁back	-1312
▁ang	-1313
▁gave	-1314
▁አገልግ	-1315
ካም	-1316
▁እንደተ	-1317
▁ይልቅ	-1318
li	-1319
ኛል	-1320
▁24	-1321
▁bu	-1322
▁cong	-1323
ts	-1324
▁sw	-1325
ቤተ	-1326
▁ያለውን	-1327
▁ስር	-1328
▁ብር	-1329
▁ፍቅር	-1330
ኤላ	-1331
በትን	-1332
▁አላቸው	-1333
▁21	-1334
ሪዎች	-1335
ng	-1336
ላለ	-1337
ይን	-1338
mb	-1339
ለሁ።	-1340
▁cor	-1341
ited	-1342
▁brought	-1343
▁prom	-1344
ፈር	-1345
▁stud	-1346
▁eat	-1347
▁cou	-1348
fect	-1349
▁ey	-1350
▁ጥሩ	-1351
▁ምክንያት	-1352
▁gl	-1353
▁ተስፋ	-1354
ጠው	-1355
▁however	-1356
▁ደግሞም	-1357
▁በት	-1358
▁true	-1359
az	-1360
▁sat	-1361
eed	-1362
▁op	-1363
▁አንቀ	-1364
▁young	-1365
▁congreg	-1366
ents	-1367
▁ተመል	-1368
ጳው	-1369
ችው	-1370
ጳውሎስ	-1371
▁በተጨማሪም	-1372
በልጥ	-1373
▁righteous	-1374
▁get	-1375
▁brothers	-1376
▁war	-1377
▁contin	-1378
▁ይሁንና	-1379
icle	-1380
▁22	-1381
▁return	-1382
ላም	-1383
ጠር	-1384
ised	-1385
ውንም	-1386
ጨረሻ	-1387
▁pur	-1388
ዲስ	-1389
ፈው	-1390
▁በህ	-1391
ስራኤላ	-1392
ማት	-1393
▁ሁለት	-1394
ib	-1395
▁በው	-1396
▁የት	-1397
▁ምክንያቱም	-1398
▁paul	-1399
ks	-1400
▁supp	-1401
▁ሸ	-1402
cess	-1403
▁happ	-1404
▁became	-1405
ሰጥ	-1406
▁አንዳንድ	-1407
▁words	-1408
▁pub	-1409
ገዛ	-1410
▁dr	-1411
ማኝ	-1412
ረብ	-1413
▁አይነት	-1414
▁family	-1415
▁ሙሴ	-1416
▁አሁን	-1417
▁tra	-1418
▁አስፈ	-1419
▁እነሱም	-1420
▁meet	-1421
▁በስ	-1422
የሩ	-1423
▁ple	-1424
▁str	-1425
cy	-1426
▁ወር	-1427
▁add	-1428
መለከተ	-1429
▁thee	-1430
▁lead	-1431
ቶችን	-1432
▁cour	-1433
▁ትን	-1434
ፍት	-1435
iss	-1436
ዲህ	-1437
▁መሠ	-1438
▁learn	-1439
ense	-1440
▁pass	-1441
ነገ	-1442
▁rece	-1443
▁called	-1444
cipl	-1445
ሞት	-1446
▁ኪ	-1447
▁ben	-1448
ስጠ	-1449
▁በጥ	-1450
ያቄ	-1451
▁የእስራኤል	-1452
▁most	-1453
▁ይኸ	-1454
▁የሆነው	-1455
ራራ	-1456
ደረግ	-1457
ject	-1458
▁በል	-1459
▁without	-1460
ized	-1461
▁dep	-1462
▁ትምህ	-1463
▁ap	-1464
▁ወንዶች	-1465
ላው	-1466
the	-1467
▁peace	-1468
▁ጀ	-1469
▁head	-1470
▁indeed	-1471
▁according	-1472
uch	-1473
▁በቀ	-1474
በብ	-1475
▁ro	-1476
▁feel	-1477
ደርጉ	-1478
▁የነበሩ	-1479
ዋል።	-1480
alem	-1481
▁ጭ	-1482
alt	-1483
ያዘ	-1484
ሃል	-1485
ሙር	-1486
▁prophe	-1487
▁ወዳ	-1488
less	-1489
የሩሳሌ	-1490
▁ጳውሎስ	-1491
▁በኩል	-1492
▁ones	-1493
▁never	-1494
ጠና	-1495
▁jerus	-1496
form	-1497
▁ሲያ	-1498
▁himself	-1499
▁jerusalem	-1500
its	-1501
▁ክርስቲያ	-1502
▁እጅግ	-1503
▁የታ	-1504
ey	-1505
gether	-1506
▁ጀመ	-1507
▁ans	-1508
gypt	-1509
ጠበ	-1510
▁matt	-1511
ጡት	-1512
eter	-1513
▁saw	-1514
ልክ	-1515
▁egypt	-1516
▁want	-1517
ርዳ	-1518
ንፈ	-1519
▁sac	-1520
ያንዳን	-1521
ision	-1522
▁23	-1523
▁trans	-1524
ቷል	-1525
▁dif	-1526
▁አያ	-1527
▁power	-1528
▁መለ	-1529
stand	-1530
uring	-1531
▁እውነ	-1532
መራ	-1533
ሰበ	-1534
▁መሆን	-1535
▁cond	-1536
ick	-1537
ደም	-1538
▁አጋ	-1539
▁ጥያቄ	-1540
▁dist	-1541
▁together	-1542
fic	-1543
ared	-1544
▁ከማ	-1545
▁sy	-1546
ቸውም	-1547
ስራኤላውያን	-1548
ሪካ	-1549
▁አዋ	-1550
▁ይህም	-1551
▁means	-1552
▁speak	-1553
▁ምር	-1554
▁until	-1555
▁የሌ	-1556
የው	-1557
▁ሁለ	-1558
▁poss	-1559
ፈለ	-1560
▁very	-1561
▁ህይወት	-1562
ጢአት	-1563
▁አመት	-1564
▁fire	-1565
ታቸውን	-1566
▁ስለሚ	-1567
▁truth	-1568
መና	-1569
▁በታ	-1570
ላፊ	-1571
▁find	-1572
ider	-1573
▁hear	-1574
ድቅ	-1575
▁organ	-1576
▁አንዱ	-1577
ነዚህ	-1578
▁ስሜ	-1579
▁ይበልጥ	-1580
ention	-1581
▁bless	-1582
▁congregation	-1583
ላጊ	-1584
ጠፋ	-1585
ict	-1586
ried	-1587
ስቶ	-1588
ደኛ	-1589
ished	-1590
ointed	-1591
og	-1592
▁ደስ	-1593
▁ኖ	-1594
▁ያሳ	-1595
▁እምነት	-1596
▁እንዳይ	-1597
▁አድርጎ	-1598
▁መባ	-1599
ቀድ	-1600
▁ቃ	-1601
▁gener	-1602
▁order	-1603
▁መሆኑን	-1604
▁rest	-1605
▁ተነ	-1606
▁ከባ	-1607
▁ነበረ	-1608
▁mount	-1609
▁three	-1610
▁offering	-1611
▁here	-1612
apt	-1613
alk	-1614
▁አገር	-1615
▁dest	-1616
ህና	-1617
▁ins	-1618
ife	-1619
▁ter	-1620
ማይ	-1621
▁gra	-1622
▁form	-1623
▁eyes	-1624
▁ተገ	-1625
▁heard	-1626
ለውን	-1627
ሰቡ	-1628
▁ፕ	-1629
▁today	-1630
▁cho	-1631
▁inter	-1632
ship	-1633
ሆንም	-1634
▁25	-1635
▁opp	-1636
▁ሴት	-1637
▁የተባ	-1638
▁er	-1639
▁har	-1640
▁mess	-1641
ለሁ፤	-1642
▁መቅ	-1643
ope	-1644
▁sim	-1645
▁እንድት	-1646
▁yet	-1647
▁disc	-1648
▁old	-1649
ምት	-1650
ened	-1651
ሰጠው	-1652
ገቡ	-1653
▁አዳ	-1654
▁high	-1655
▁wife	-1656
▁remain	-1657
ችለው	-1658
▁ሙሉ	-1659
▁ቋ	-1660
ided	-1661
የሩሳሌም	-1662
▁mon	-1663
▁judah	-1664
▁began	-1665
ሏል	-1666
ቀመ	-1667
▁ነው፡፡	-1668
clud	-1669
ደረጉ	-1670
▁ነው፤	-1671
amp	-1672
▁news	-1673
▁same	-1674
▁kind	-1675
▁መልካም	-1676
▁እንዳለ	-1677
▁nations	-1678
ertain	-1679
▁joh	-1680
▁done	-1681
▁ቢሆን	-1682
▁article	-1683
ail	-1684
▁sm	-1685
▁መንግስት	-1686
▁fin	-1687
uthor	-1688
▁list	-1689
ልጽ	-1690
ችሉ	-1691
▁procl	-1692
▁government	-1693
ased	-1694
ድና	-1695
mon	-1696
▁tem	-1697
ቻችን	-1698
▁told	-1699
ቤት	-1700
ዛት	-1701
ጠብ	-1702
ይሁዳ	-1703
ution	-1704
▁ይኸውም	-1705
▁አቅ	-1706
▁water	-1707
hing	-1708
▁inc	-1709
▁ስፍራ	-1710
▁መንፈስ	-1711
▁እንግ	-1712
ating	-1713
▁ever	-1714
▁በምድር	-1715
▁ገን	-1716
▁consider	-1717
ገኛ	-1718
ልም	-1719
▁author	-1720
ማር	-1721
▁conf	-1722
▁think	-1723
መሰ	-1724
▁pol	-1725
ጠራ	-1726
▁dire	-1727
▁therefore	-1728
▁ተና	-1729
▁‘	-1730
▁bod	-1731
ግራ	-1732
▁እንድን	-1733
ደርስ	-1734
▁use	-1735
▁ጉዳይ	-1736
▁sur	-1737
▁ጥረት	-1738
ሳኔ	-1739
▁የለም	-1740
▁አለው።	-1741
▁የመጽሃፍ	-1742
▁ድርጅ	-1743
▁john	-1744
▁ለምንድን	-1745
▁example	-1746
መረ	-1747
▁የስ	-1748
ላለም	-1749
▁በፍ	-1750
ield	-1751
▁dev	-1752
▁est	-1753
▁ይኖር	-1754
ational	-1755
▁አለም	-1756
▁አገልግሎት	-1757
▁እኔም	-1758
ስና	-1759
ued	-1760
▁30	-1761
ቀት	-1762
ዘው	-1763
▁ትእ	-1764
▁መመሪያ	-1765
ካታ	-1766
ween	-1767
▁በአንድ	-1768
▁ክፉ	-1769
▁servants	-1770
▁much	-1771
▁በራ	-1772
▁between	-1773
▁ዳዊት	-1774
▁አንቀጽ	-1775
▁ማስ	-1776
▁tell	-1777
ላዊ	-1778
ret	-1779
▁creat	-1780
▁conc	-1781
▁discipl	-1782
ንቋ	-1783
▁ስብ	-1784
▁የህ	-1785
▁ኢዮ	-1786
ምጃ	-1787
▁ድም	-1788
▁tak	-1789
ክርስ	-1790
▁ምክር	-1791
▁full	-1792
መር	-1793
▁ስት	-1794
ሳቸው	-1795
▁አስፈላጊ	-1796
▁ጣ	-1797
▁reas	-1798
▁public	-1799
ፈልጋ	-1800
▁fear	-1801
▁daught	-1802
▁bur	-1803
pr	-1804
▁contr	-1805
ደጋ	-1806
▁ንጉስ	-1807
osed	-1808
▁በሆነ	-1809
icked	-1810
▁ከፍተኛ	-1811
iving	-1812
▁ንጉሥ	-1813
▁requ	-1814
ከታ	-1815
▁fri	-1816
ying	-1817
▁መግ	-1818
▁ስላ	-1819
▁ከወ	-1820
▁sure	-1821
ከብ	-1822
ዋን	-1823
ility	-1824
ስን	-1825
▁ps	-1826
hold	-1827
ገለግ	-1828
illed	-1829
▁since	-1830
ange	-1831
ሩን	-1832
▁ሶ	-1833
▁iss	-1834
▁num	-1835
▁ያደርጋ	-1836
▁ፈጽ	-1837
▁service	-1838
▁አገ	-1839
▁times	-1840
ቻችሁ	-1841
aching	-1842
▁es	-1843
▁wat	-1844
ተር	-1845
ጆች	-1846
▁እነሱ	-1847
▁prin	-1848
ሥት	-1849
cial	-1850
▁som	-1851
oice	-1852
▁mer	-1853
ኑን	-1854
odu	-1855
ines	-1856
ዘላለም	-1857
ek	-1858
ጥሮ	-1859
▁el	-1860
ሕዝ	-1861
▁ታላቅ	-1862
ሚያ	-1863
ረን	-1864
ሳን	-1865
▁ሉ	-1866
▁offic	-1867
ታችሁ	-1868
ting	-1869
▁judg	-1870
▁ታማኝ	-1871
▁both	-1872
▁med	-1873
per	-1874
▁አማካ	-1875
▁የሰው	-1876
arent	-1877
▁sign	-1878
▁ውሳኔ	-1879
▁sacri	-1880
thing	-1881
▁ፊ	-1882
ጣን	-1883
▁የሆነውን	-1884
te	-1885
▁ባህ	-1886
ም፤	-1887
ሮችን	-1888
outh	-1889
▁መሰረት	-1890
▁ሂ	-1891
▁28	-1892
▁አሉ	-1893
▁በነ	-1894
▁ዓመት	-1895
▁ታዲያ	-1896
▁trib	-1897
ጠቀም	-1898
▁left	-1899
und	-1900
▁ተግባ	-1901
▁wicked	-1902
▁during	-1903
▁still	-1904
iew	-1905
ልጣን	-1906
▁በያህዌ	-1907
▁ክርስቶስ	-1908
ote	-1909
ነቱ	-1910
▁ሃሳብ	-1911
▁ትምህርት	-1912
▁አካባቢ	-1913
ሮን	-1914
▁present	-1915
ውል	-1916
ንት	-1917
▁እንደሚያ	-1918
▁በወ	-1919
▁understand	-1920
ቻቸውን	-1921
ck	-1922
ገብ	-1923
ript	-1924
▁ተብ	-1925
▁quest	-1926
▁ዛሬ	-1927
▁ሰይ	-1928
▁witnesses	-1929
▁ወጣ	-1930
▁decl	-1931
▁ያህዌን	-1932
▁friend	-1933
ቀበ	-1934
▁አጥ	-1935
ኞቹ	-1936
▁የሃ	-1937
ስማ	-1938
▁ማሳ	-1939
መሳ	-1940
▁inte	-1941
▁መሠረት	-1942
ተኞች	-1943
▁ed	-1944
ቡን	-1945
oke	-1946
▁ማንኛውም	-1947
▁ከዚያ	-1948
▁spiritual	-1949
▁ክርስቲያኖች	-1950
ፈጸም	-1951
ገነ	-1952
▁የባ	-1953
▁par	-1954
ዘን	-1955
▁ሳይሆን	-1956
▁ግብ	-1957
ined	-1958
▁char	-1959
▁ለማድረግ	-1960
ef	-1961
▁እውነት	-1962
▁ጉባኤ	-1963
ለኛ	-1964
▁ይገባ	-1965
ቃት	-1966
ually	-1967
▁last	-1968
▁ወንድሞች	-1969
▁themselves	-1970
ars	-1971
ደረገው	-1972
ither	-1973
ማግ	-1974
ጠሩ	-1975
▁blood	-1976
ርን	-1977
ቆጣ	-1978
ንጉ	-1979
ቸዋ	-1980
▁አክ	-1981
▁የለ	-1982
reng	-1983
▁woman	-1984
▁certain	-1985
▁serve	-1986
ስቱ	-1987
ident	-1988
▁streng	-1989
▁መር	-1990
ሶች	-1991
▁forg	-1992
ድሜ	-1993
▁ጓ	-1994
ሪክ	-1995
rew	-1996
▁አላህ	-1997
▁live	-1998
eng	-1999
▁living	-2000
▁month	-2001
ove	-2002
▁ለተ	-2003
rest	-2004
gin	-2005
▁id	-2006
▁report	-2007
▁abr	-2008
▁used	-2009
ሽን	-2010
ይነት	-2011
▁እነሆ	-2012
ms	-2013
▁eld	-2014
▁በሰማ	-2015
▁በአምላክ	-2016
▁የራ	-2017
▁እርሱ	-2018
▁mother	-2019
▁po	-2020
ገደ	-2021
▁ደረጃ	-2022
▁አመለ	-2023
ilt	-2024
ative	-2025
▁በረ	-2026
ይት	-2027
▁though	-2028
ማግሌ	-2029
▁ባሪያ	-2030
▁አምላ	-2031
▁includ	-2032
abl	-2033
▁book	-2034
▁country	-2035
xt	-2036
▁care	-2037
▁night	-2038
▁አታ	-2039
ርሱም	-2040
በረታ	-2041
▁bir	-2042
▁organiz	-2043
ains	-2044
ቂያ	-2045
▁ትር	-2046
▁ትእዛ	-2047
ፈጽ	-2048
▁face	-2049
▁concern	-2050
▁ራሳ	-2051
▁far	-2052
▁መንፈሳዊ	-2053
▁እርምጃ	-2054
▁christian	-2055
▁ሐ	-2056
▁ዮሃ	-2057
▁አመታት	-2058
ock	-2059
▁ሮ	-2060
hip	-2061
ime	-2062
▁አዋጅ	-2063
ከናወ	-2064
▁መዛ	-2065
▁የግ	-2066
▁ፈቃድ	-2067
▁hands	-2068
▁cities	-2069
iness	-2070
amation	-2071
ራዊት	-2072
ቋም	-2073
▁heal	-2074
ብርሃ	-2075
ired	-2076
▁ask	-2077
▁produ	-2078
ወደ	-2079
▁የሚል	-2080
▁phil	-2081
ዙሪያ	-2082
ወድ	-2083
ብራ	-2084
▁beh	-2085
▁cent	-2086
▁bre	-2087
▁ዘር	-2088
▁sol	-2089
▁ተወ	-2090
▁አማካኝነት	-2091
▁israelites	-2092
ሉ፤	-2093
▁ministry	-2094
▁proclamation	-2095
▁ልዩ	-2096
▁እስራኤላውያን	-2097
በቃ	-2098
ነጋ	-2099
ያዊ	-2100
▁ጦር	-2101
▁ሆይ፣	-2102
▁support	-2103
ጠል	-2104
ፈራ	-2105
▁appro	-2106
▁toward	-2107
▁አጠ	-2108
▁ኦ	-2109
els	-2110
▁imm	-2111
▁ትክ	-2112
▁fact	-2113
▁parent	-2114
ታደ	-2115
▁የቀ	-2116
▁መልእ	-2117
▁dead	-2118
▁ነኝ	-2119
ዳር	-2120
▁pra	-2121
▁ሰዎችን	-2122
▁አድ	-2123
▁አዲስ	-2124
ten	-2125
▁real	-2126
ያንዳንዱ	-2127
ief	-2128
▁reason	-2129
▁adv	-2130
▁regul	-2131
ፈልግ	-2132
▁ምድ	-2133
▁ለማግኘት	-2134
▁ገል	-2135
ሬት	-2136
▁አመለካከ	-2137
▁ቋንቋ	-2138
▁tre	-2139
▁body	-2140
ነበር	-2141
▁ሥር	-2142
▁state	-2143
ጢአ	-2144
▁የው	-2145
▁በጎ	-2146
arly	-2147
▁ነበር፤	-2148
▁በብ	-2149
▁adm	-2150
▁27	-2151
▁phar	-2152
▁human	-2153
▁accept	-2154
ሉን	-2155
▁ወጥ	-2156
▁expl	-2157
oint	-2158
▁ወሰ	-2159
ning	-2160
▁free	-2161
ለያዩ	-2162
▁በሁ	-2163
▁የአምላክን	-2164
▁prep	-2165
ቆብ	-2166
▁ለው	-2167
▁ሊሆን	-2168
▁food	-2169
▁saul	-2170
▁መጣ	-2171
▁ምስክ	-2172
▁four	-2173
▁ብት	-2174
oney	-2175
▁ከም	-2176
▁around	-2177
▁መሳ	-2178
ፎች	-2179
lect	-2180
▁enc	-2181
▁ሁሉም	-2182
▁along	-2183
▁heavens	-2184
ልኝ	-2185
▁believe	-2186
▁enem	-2187
▁doing	-2188
▁የጥ	-2189
▁too	-2190
ged	-2191
▁ስለሆነ	-2192
arted	-2193
▁ማቴ	-2194
▁ፖ	-2195
▁sam	-2196
▁account	-2197
▁ስን	-2198
ማኖ	-2199
▁coun	-2200
▁ድንጋ	-2201
▁ሰማ	-2202
▁apost	-2203
ዮን	-2204
▁kept	-2205
▁servant	-2206
▁ዜ	-2207
▁jew	-2208
ience	-2209
ዘጋጀ	-2210
▁ፍላ	-2211
▁ጴ	-2212
ration	-2213
ute	-2214
▁isa	-2215
▁መከራ	-2216
▁ለምሳሌ	-2217
ቶቹ	-2218
ፈረ	-2219
▁div	-2220
▁field	-2221
▁አፍ	-2222
ured	-2223
▁view	-2224
ከው	-2225
ከተማ	-2226
▁ተናግ	-2227
▁direct	-2228
▁ሽማግሌ	-2229
▁remem	-2230
▁unc	-2231
ከቱ	-2232
▁establ	-2233
ሞክ	-2234
▁ይኖ	-2235
▁comple	-2236
ሩም	-2237
▁መብት	-2238
▁cause	-2239
▁ethiopia	-2240
ደሰ	-2241
▁በሚያ	-2242
▁ቡ	-2243
ison	-2244
▁በስተ	-2245
▁gold	-2246
▁እነዚህን	-2247
ቀጥ	-2248
▁ማስተ	-2249
▁አለበት	-2250
▁ሠ	-2251
▁26	-2252
▁በዳ	-2253
ዓት	-2254
well	-2255
▁ትልቅ	-2256
ሬው	-2257
ages	-2258
በላ	-2259
aim	-2260
▁ሰጥ	-2261
ploy	-2262
▁ሆነው	-2263
▁ክፍል	-2264
▁kings	-2265
ሎችን	-2266
▁pat	-2267
▁ያላቸው	-2268
▁taken	-2269
▁ከባድ	-2270
ውያ	-2271
▁import	-2272
rent	-2273
ባር	-2274
ቴን	-2275
ቀርብ	-2276
▁ከሌ	-2277
መለስ	-2278
ues	-2279
▁ሄደ	-2280
ጋት	-2281
aham	-2282
▁going	-2283
ረጋገ	-2284
ችላለን	-2285
ረዱ	-2286
መልከት	-2287
▁ተፈ	-2288
▁regard	-2289
▁እንችላለን	-2290
▁የምታ	-2291
ission	-2292
ሴፍ	-2293
man	-2294
▁ትኩ	-2295
hab	-2296
▁አምላክን	-2297
▁script	-2298
▁sil	-2299
▁sit	-2300
▁later	-2301
▁ባለው	-2302
ኩት	-2303
ner	-2304
ሄዱ	-2305
▁joy	-2306
▁ስብሰባ	-2307
▁ገንዘብ	-2308
▁listen	-2309
▁sea	-2310
▁prot	-2311
ያም	-2312
ize	-2313
▁abraham	-2314
ified	-2315
▁light	-2316
ient	-2317
▁በሌላ	-2318
▁ሕዝብ	-2319
ላህ	-2320
ሙት	-2321
ጉም	-2322
▁ወስ	-2323
ተዋል	-2324
ናቸው	-2325
ናገረ	-2326
▁faithful	-2327
▁build	-2328
."	-2329
irc	-2330
▁hath	-2331
▁ምግብ	-2332
▁mid	-2333
▁እንዲሆን	-2334
cc	-2335
ብኝ	-2336
ናገረው	-2337
▁ሴቶች	-2338
▁ቢሆንም	-2339
▁drink	-2340
▁ወላ	-2341
▁strong	-2342
ርም	-2343
▁ይቅር	-2344
▁alt	-2345
▁seven	-2346
▁ህዝብ	-2347
▁ጥቅም	-2348
▁ሠራ	-2349
▁christians	-2350
▁nothing	-2351
ived	-2352
ላቸውን	-2353
▁gods	-2354
▁ሰላም	-2355
▁ቅዱስን	-2356
▁ልጁ	-2357
▁ገደ	-2358
▁መልስ	-2359
▁ብሏል	-2360
▁answ	-2361
▁dra	-2362
▁አልተ	-2363
▁በርካታ	-2364
▁ከነ	-2365
▁መጠን	-2366
▁send	-2367
▁wild	-2368
▁በተመለከተ	-2369
ሙን	-2370
▁አንዳን	-2371
▁ከሁ	-2372
▁ፈጽሞ	-2373
▁hold	-2374
▁ድርጊ	-2375
gr	-2376
ያዝ	-2377
ቅስ	-2378
▁mat	-2379
▁disciples	-2380
ብረት	-2381
ኖረው	-2382
▁diffe	-2383
angu	-2384
▁199	-2385
▁መንገ	-2386
▁ብለው	-2387
ማዊ	-2388
akes	-2389
▁ይሰማ	-2390
▁thus	-2391
▁ንግ	-2392
ሪቱ	-2393
ዎስ	-2394
▁ያው	-2395
▁mind	-2396
▁wo	-2397
▁አበ	-2398
▁እርስ	-2399
▁known	-2400
ለይ	-2401
ያያዘ	-2402
▁የሚጠ	-2403
ering	-2404
oseph	-2405
▁court	-2406
not	-2407
▁exper	-2408
ለደ	-2409
vere	-2410
▁dwell	-2411
▁የል	-2412
▁hus	-2413
ከር	-2414
ዲያው	-2415
▁bad	-2416
▁ill	-2417
ረጥ	-2418
ቅና	-2419
▁langu	-2420
▁ጀምሮ	-2421
▁side	-2422
ቤቱ	-2423
ዳታ	-2424
▁mean	-2425
ይል	-2426
▁ከእሱ	-2427
መድ	-2428
▁ያሉት	-2429
▁women	-2430
▁authority	-2431
ix	-2432
▁joseph	-2433
▁parents	-2434
▁obs	-2435
▁የነበረው	-2436
ያል	-2437
▁ራስ	-2438
▁priests	-2439
ጉባኤ	-2440
▁ካህ	-2441
▁home	-2442
▁እህ	-2443
▁ነፍ	-2444
be	-2445
▁av	-2446
▁አር	-2447
ዳቸው	-2448
▁ሀ	-2449
roy	-2450
ችንም	-2451
▁መቶ	-2452
▁sist	-2453
▁within	-2454
▁region	-2455
▁having	-2456
▁አመለካከት	-2457
▁ext	-2458
▁ለምን	-2459
▁fall	-2460
▁asked	-2461
▁satan	-2462
pe	-2463
ፈልጉ	-2464
▁መጽ	-2465
▁በቅ	-2466
▁nam	-2467
▁አካል	-2468
aster	-2469
▁employ	-2470
ያት	-2471
oura	-2472
▁እስራኤል	-2473
ልክት	-2474
▁ባል	-2475
▁near	-2476
velop	-2477
▁camp	-2478
isions	-2479
ደት	-2480
▁stru	-2481
▁ምስክሮች	-2482
▁destroy	-2483
ledge	-2484
▁wrong	-2485
ቀበል	-2486
▁ደቀ	-2487
gg	-2488
ully	-2489
▁ለዘላለም	-2490
ቀረበ	-2491
▁መሥ	-2492
ific	-2493
▁ድንኳ	-2494
ds	-2495
air	-2496
ራችሁ	-2497
▁ቤቱ	-2498
ላከ	-2499
▁sk	-2500
ices	-2501
▁መጥፎ	-2502
▁ክብር	-2503
▁ነጻ	-2504
▁respect	-2505
▁ለሌ	-2506
▁cur	-2507
▁jac	-2508
▁pay	-2509
▁cannot	-2510
በታል	-2511
▁ደስታ	-2512
ality	-2513
▁ሜ	-2514
▁የመንግ	-2515
▁jacob	-2516
▁hon	-2517
▁ረገድ	-2518
▁ግንኙ	-2519
▁29	-2520
▁ethiopian	-2521
▁የፍ	-2522
aces	-2523
▁bus	-2524
▁በመንፈ	-2525
▁እንዳል	-2526
▁proble	-2527
በቅ	-2528
▁አቀ	-2529
▁dem	-2530
▁loy	-2531
▁money	-2532
▁worship	-2533
ሯል	-2534
ric	-2535
▁ህይወ	-2536
▁ለያህዌ	-2537
▁ውሃ	-2538
▁ይታ	-2539
itten	-2540
▁foreign	-2541
▁40	-2542
▁ቁጥር	-2543
▁develop	-2544
ained	-2545
▁እነዚያ	-2546
ething	-2547
▁coming	-2548
alm	-2549
ሎን	-2550
ናው	-2551
▁ስሜት	-2552
ession	-2553
ew	-2554
ጋጥ	-2555
ron	-2556
▁በከ	-2557
▁memb	-2558
▁something	-2559
ፈሩ	-2560
▁die	-2561
▁hard	-2562
▁thir	-2563
ides	-2564
ት።	-2565
ዲት	-2566
▁ፍላጎ	-2567
▁able	-2568
▁walk	-2569
▁members	-2570
▁ይሆን	-2571
▁ways	-2572
▁የሚገኙ	-2573
▁ማንም	-2574
▁ከተሞች	-2575
ና።	-2576
ash	-2577
ርቶ	-2578
▁ለማስ	-2579
▁አለ።	-2580
▁ፍሬ	-2581
▁thing	-2582
▁tent	-2583
▁lev	-2584
▁ma	-2585
▁ወይ	-2586
▁thought	-2587
ገረ	-2588
ደርገው	-2589
ታል።	-2590
fully	-2591
▁suff	-2592
▁ማግኘት	-2593
▁pract	-2594
▁31	-2595
▁bab	-2596
▁better	-2597
uit	-2598
ረዳት	-2599
▁following	-2600
alf	-2601
ify	-2602
▁የኤ	-2603
ousand	-2604
▁whole	-2605
▁ተሰ	-2606
▁shalt	-2607
▁thousand	-2608
ስጠት	-2609
aron	-2610
▁heb	-2611
▁አስደ	-2612
▁sword	-2613
▁ቀጥ	-2614
though	-2615
hu	-2616
ራሉ	-2617
ወቀ	-2618
▁አደረገ	-2619
ታን	-2620
uss	-2621
ለዋል	-2622
▁benef	-2623
▁የመጀመሪያ	-2624
ቂት	-2625
▁መቅደ	-2626
▁እሱን	-2627
▁acts	-2628
ched	-2629
▁meas	-2630
▁whose	-2631
ብረ	-2632
▁ዘመ	-2633
▁anyone	-2634
▁wis	-2635
▁hope	-2636
ai	-2637
▁ከሰ	-2638
▁making	-2639
▁መው	-2640
▁occ	-2641
ቅረብ	-2642
▁died	-2643
ቸው።	-2644
▁seek	-2645
▁እርሱም	-2646
▁ጻ	-2647
▁ጽሁ	-2648
ways	-2649
▁result	-2650
hem	-2651
oken	-2652
▁relig	-2653
ወሰነ	-2654
ሞን	-2655
▁እስኪ	-2656
▁although	-2657
▁seen	-2658
▁voice	-2659
▁ችሎ	-2660
▁ትችላ	-2661
▁በዛ	-2662
▁written	-2663
▁def	-2664
▁allow	-2665
ሰድ	-2666
ipp	-2667
ጥረት	-2668
▁ከል	-2669
▁ፍርድ	-2670
▁በእሱ	-2671
ክርስቶስ	-2672
idence	-2673
▁number	-2674
▁close	-2675
uct	-2676
pect	-2677
▁whether	-2678
ልፍ	-2679
▁በእስራኤል	-2680
ለጠ	-2681
ስብ	-2682
▁ተራራ	-2683
ares	-2684
band	-2685
lesh	-2686
ታችንን	-2687
iting	-2688
ተን	-2689
ዝር	-2690
▁ተብሎ	-2691
▁በሃ	-2692
▁leg	-2693
▁test	-2694
▁flesh	-2695
▁san	-2696
▁elders	-2697
▁interest	-2698
of	-2699
▁ይናገ	-2700
▁surely	-2701
ልል	-2702
ም፡፡	-2703
ችኋል	-2704
▁mil	-2705
▁ጥበብ	-2706
▁prayer	-2707
arch	-2708
▁እሷ	-2709
▁rul	-2710
▁አልነበረ	-2711
▁የይሖዋ	-2712
hel	-2713
urity	-2714
▁ሚስት	-2715
▁መላ	-2716
▁ተጽ	-2717
▁open	-2718
▁obser	-2719
ned	-2720
በሩት	-2721
▁husband	-2722
▁ህግ	-2723
▁ውጤ	-2724
▁coll	-2725
▁express	-2726
▁መታ	-2727
▁carry	-2728
ወር	-2729
▁ዝግ	-2730
ብርሃም	-2731
▁rom	-2732
▁ርእ	-2733
▁altar	-2734
ባቸውን	-2735
▁በአን	-2736
▁ወንድሞ	-2737
▁aaron	-2738
▁peter	-2739
▁እርዳታ	-2740
▁ግንኙነት	-2741
ባችሁ	-2742
ብት	-2743
ቃሚ	-2744
ገት	-2745
ሃን	-2746
▁ገብ	-2747
▁አሁንም	-2748
▁inher	-2749
▁32	-2750
▁አብዛ	-2751
▁const	-2752
ገባው	-2753
▁ካል	-2754
▁ያም	-2755
▁ችግር	-2756
▁activ	-2757
▁mr	-2758
▁ru	-2759
▁wise	-2760
▁መዝሙር	-2761
▁bread	-2762
▁trust	-2763
iol	-2764
▁የሚያሳ	-2765
▁glory	-2766
▁except	-2767
▁በሕ	-2768
▁ምንድን	-2769
▁don	-2770
▁giving	-2771
ናዊ	-2772
▁coven	-2773
▁commun	-2774
ዋእ	-2775
▁stri	-2776
▁ይችላሉ	-2777
ps	-2778
joy	-2779
▁እውነተኛ	-2780
▁ምስራ	-2781
▁እኛም	-2782
▁knowledge	-2783
yl	-2784
▁በፊ	-2785
▁ብላ	-2786
▁second	-2787
▁daughter	-2788
▁አየ	-2789
▁አባት	-2790
መጡ	-2791
ፈጠ	-2792
▁ክርስቲያን	-2793
ወጡ	-2794
ining	-2795
▁gif	-2796
▁jos	-2797
▁የምና	-2798
▁እንስ	-2799
ittle	-2800
ሰጡ	-2801
ስተኛ	-2802
ርቅ	-2803
ury	-2804
▁ልት	-2805
▁pun	-2806
▁fine	-2807
▁prof	-2808
▁መንግሥት	-2809
▁ሺ	-2810
▁ኤል	-2811
▁ወንድም	-2812
▁በተያያዘ	-2813
▁fav	-2814
▁job	-2815
▁ድርጅት	-2816
▁ደን	-2817
▁ስጦ	-2818
▁remember	-2819
ራን	-2820
▁መጻ	-2821
▁rather	-2822
▁ሪ	-2823
ደግ	-2824
▁always	-2825
▁commanded	-2826
▁በባ	-2827
▁covenant	-2828
▁በዘ	-2829
▁little	-2830
▁ችግ	-2831
▁ኢያ	-2832
▁የካ	-2833
ones	-2834
▁chief	-2835
▁fut	-2836
▁ጴጥሮ	-2837
▁አባላት	-2838
ሻለ	-2839
ark	-2840
▁eff	-2841
▁በማድረግ	-2842
ሰል	-2843
ead	-2844
iel	-2845
▁ገና	-2846
ዎችና	-2847
▁army	-2848
ላን	-2849
ማቸው	-2850
ራር	-2851
▁lu	-2852
▁evil	-2853
soci	-2854
ላፊነት	-2855
ገልገል	-2856
▁suc	-2857
eal	-2858
▁ቅር	-2859
ዘዝ	-2860
bel	-2861
osition	-2862
▁important	-2863
▁inform	-2864
▁del	-2865
▁continue	-2866
ኑም	-2867
▁rej	-2868
▁best	-2869
ec	-2870
aoh	-2871
▁sel	-2872
▁vis	-2873
▁soon	-2874
▁prophet	-2875
ቀድሞ	-2876
▁study	-2877
▁wisdom	-2878
▁pharaoh	-2879
▁33	-2880
▁circ	-2881
▁ብሄ	-2882
▁please	-2883
▁ተዋ	-2884
▁ground	-2885
ለቱ	-2886
ደን	-2887
ከተል	-2888
▁aw	-2889
urch	-2890
▁five	-2891
▁main	-2892
▁stay	-2893
▁health	-2894
▁በምት	-2895
▁የተለ	-2896
▁ታው	-2897
itre	-2898
ደረሰ	-2899
▁ተቃ	-2900
ቶቻቸው	-2901
▁ዲ	-2902
▁inf	-2903
▁past	-2904
ys	-2905
ተት	-2906
▁ፕሮ	-2907
▁enjoy	-2908
ately	-2909
▁associ	-2910
elt	-2911
▁solom	-2912
▁administ	-2913
▁relations	-2914
ርያት	-2915
▁መሳሪያ	-2916
▁organization	-2917
▁በበ	-2918
▁yes	-2919
▁ቀደም	-2920
▁ጀመር	-2921
▁ራእ	-2922
ached	-2923
ስጤ	-2924
▁ፋ	-2925
▁encoura	-2926
ቀደ	-2927
ከለ	-2928
▁የሞ	-2929
▁ልክ	-2930
▁ዳዊ	-2931
▁ስለተ	-2932
▁enter	-2933
ትር	-2934
ሜሪካ	-2935
ዎቹን	-2936
eral	-2937
▁inherit	-2938
ማል	-2939
▁ዳር	-2940
▁conv	-2941
▁መዛሙር	-2942
▁protect	-2943
ነግ	-2944
▁next	-2945
▁ባይ	-2946
▁eng	-2947
▁val	-2948
▁works	-2949
▁praise	-2950
▁ተገቢ	-2951
ጊዜም	-2952
▁በመካከ	-2953
ማን	-2954
ግባር	-2955
▁የቤተ	-2956
▁ከእናንተ	-2957
▁respons	-2958
bs	-2959
▁discl	-2960
▁gar	-2961
▁neither	-2962
▁ትንቢ	-2963
▁caus	-2964
▁ለአምላክ	-2965
▁someone	-2966
ረድ	-2967
▁የነበሩት	-2968
▁ንጹ	-2969
▁deter	-2970
▁meeting	-2971
▁mem	-2972
▁አገልጋዮች	-2973
▁solomon	-2974
ጽና	-2975
▁ውጭ	-2976
▁መስጠ	-2977
▁prev	-2978
▁eritre	-2979
ነርሱ	-2980
▁conduct	-2981
▁ከእነሱ	-2982
ሜን	-2983
ጣል	-2984
▁ሕግ	-2985
▁በድ	-2986
▁አግ	-2987
▁ጠብ	-2988
ማውያን	-2989
▁ለዚህ	-2990
aced	-2991
ስራት	-2992
▁በመጀመሪያ	-2993
ከሰ	-2994
ጣሚ	-2995
▁ይሰጣ	-2996
▁ስጦታ	-2997
▁deep	-2998
▁belong	-2999
ዋዕ	-3000
▁mouth	-3001
▁office	-3002
ises	-3003
▁ትርጉም	-3004
▁አምላካ	-3005
▁security	-3006
stem	-3007
▁የሚከተ	-3008
ጠን	-3009
ulf	-3010
ኑት	-3011
▁ሳኦ	-3012
▁አሳል	-3013
▁በዛሬው	-3014
ont	-3015
▁ለእናንተ	-3016
ቹም	-3017
row	-3018
▁wa	-3019
▁righteousness	-3020
ocr	-3021
▁መሪ	-3022
▁ንጉሡ	-3023
▁jews	-3024
▁viol	-3025
rem	-3026
▁በዓ	-3027
▁got	-3028
▁fellow	-3029
▁different	-3030
▁ጫ	-3031
▁priv	-3032
▁regist	-3033
ባረ	-3034
▁34	-3035
▁sal	-3036
up	-3037
▁scho	-3038
▁ያሉትን	-3039
▁ነገሮችን	-3040
reed	-3041
▁sing	-3042
▁እንደማይ	-3043
▁system	-3044
ination	-3045
ቻል	-3046
ርትራ	-3047
▁ce	-3048
▁ሚኒ	-3049
▁200	-3050
▁situ	-3051
▁አንተም	-3052
መለከት	-3053
▁መረጃ	-3054
attle	-3055
▁ትእዛዝ	-3056
ሳል	-3057
▁ማህ	-3058
▁capt	-3059
ፉት	-3060
▁rev	-3061
▁grow	-3062
▁sovere	-3063
ee	-3064
▁ደም	-3065
▁የዚህ	-3066
▁agree	-3067
▁አሉት	-3068
aring	-3069
▁asse	-3070
athe	-3071
▁ነውና	-3072
ባባ	-3073
▁often	-3074
ረገ	-3075
▁intern	-3076
den	-3077
▁fail	-3078
ታይ	-3079
▁ሃዋ	-3080
▁ይዞ	-3081
ently	-3082
▁seem	-3083
▁turned	-3084
?”	-3085
▁በቅር	-3086
▁purp	-3087
▁rele	-3088
ጠይ	-3089
▁ከእኔ	-3090
▁የያህዌን	-3091
▁forever	-3092
ለቲ	-3093
▁leave	-3094
▁determ	-3095
ጊያ	-3096
ናገሩ	-3097
▁dan	-3098
ስትና	-3099
▁ኖሮ	-3100
▁temple	-3101
▁ሃይል	-3102
▁ያስተ	-3103
ከፋ	-3104
ጹም	-3105
▁ወታደ	-3106
▁ዙሪያ	-3107
▁በዚያም	-3108
▁press	-3109
ቆች	-3110
ኖስ	-3111
▁case	-3112
ዚሁ	-3113
▁መሆና	-3114
tain	-3115
ለማ	-3116
ዘር	-3117
▁nation	-3118
▁የሥራ	-3119
▁watch	-3120
▁really	-3121
atic	-3122
▁ምንጊዜም	-3123
▁course	-3124
ብብ	-3125
▁-	-3126
cil	-3127
cient	-3128
▁wrote	-3129
▁aff	-3130
ሄዳ	-3131
▁future	-3132
▁col	-3133
ሊት	-3134
▁ጆ	-3135
▁ቀናት	-3136
▁ትኩረት	-3137
ችልም	-3138
▁ጥቅ	-3139
▁ዮሴፍ	-3140
▁grou	-3141
▁comes	-3142
uel	-3143
ለውም	-3144
▁አለቃ	-3145
▁once	-3146
▁language	-3147
▁yourself	-3148
▁ይበ	-3149
▁less	-3150
ደራ	-3151
ወዳ	-3152
▁ውድ	-3153
▁few	-3154
▁red	-3155
▁assign	-3156
▁ur	-3157
aves	-3158
ural	-3159
ylon	-3160
▁አለመ	-3161
▁ኪዳን	-3162
▁የጦር	-3163
▁መስዋእ	-3164
▁instru	-3165
▁whoever	-3166
▁fruit	-3167
▁ይረዳ	-3168
ሁን	-3169
▁»	-3170
▁ግለ	-3171
ገንዘብ	-3172
▁resur	-3173
▁teach	-3174
ror	-3175
▁የደ	-3176
fort	-3177
▁አንዲት	-3178
▁መጀመሪያ	-3179
▁ኢትዮጵያ	-3180
▁የኢትዮጵያ	-3181
▁babylon	-3182
ቦት	-3183
▁ጴጥሮስ	-3184
▁marri	-3185
▁enemies	-3186
ኪያ	-3187
ling	-3188
▁fight	-3189
▁answer	-3190
▁resurre	-3191
▁ወደሚ	-3192
▁stop	-3193
▁ከያህዌ	-3194
ሁት	-3195
ብህ	-3196
▁inhab	-3197
▁received	-3198
wered	-3199
▁burn	-3200
▁ናቸው።	-3201
▁አንስቶ	-3202
▁compan	-3203
ards	-3204
lean	-3205
▁eph	-3206
▁fed	-3207
▁ወዲያው	-3208
▁minister	-3209
ጤና	-3210
▁በኤ	-3211
▁ወረ	-3212
▁loc	-3213
▁ራሱን	-3214
▁ግልጽ	-3215
▁አጋጣሚ	-3216
▁ከአምላክ	-3217
ሆነው	-3218
▁አላቸው።	-3219
▁ጢ	-3220
oub	-3221
▁ማር	-3222
▁201	-3223
ይና	-3224
ጠበቅ	-3225
▁punish	-3226
▁እያንዳንዱ	-3227
▁receive	-3228
ልህ	-3229
ጸው	-3230
▁በጽ	-3231
▁የላ	-3232
aps	-3233
▁ታላ	-3234
▁tri	-3235
▁sheep	-3236
▁sound	-3237
▁decision	-3238
▁disclosed	-3239
▁ef	-3240
ivid	-3241
መሳሳይ	-3242
ety	-3243
▁የሙ	-3244
▁bapt	-3245
▁በግልጽ	-3246
ርዳት	-3247
▁ከብ	-3248
▁ዋና	-3249
▁complete	-3250
ክህ	-3251
▁favor	-3252
▁ፓ	-3253
ists	-3254
▁expect	-3255
eds	-3256
▁ውኃ	-3257
▁ይመስ	-3258
▁church	-3259
▁እንዲያውም	-3260
ምነ	-3261
▁everything	-3262
▁ለብ	-3263
▁control	-3264
ጋሪ	-3265
ግጠ	-3266
▁met	-3267
oud	-3268
▁በመጨረሻ	-3269
itud	-3270
▁fulf	-3271
ism	-3272
▁answered	-3273
ሮት	-3274
▁forth	-3275
ነበረው	-3276
uc	-3277
ዱት	-3278
▁ከዚህም	-3279
▁loyal	-3280
▁lar	-3281
▁warn	-3282
▁ከአንተ	-3283
▁effect	-3284
▁ጠን	-3285
▁ann	-3286
▁መሥዋዕ	-3287
▁መልእክት	-3288
▁det	-3289
▁ትክክ	-3290
▁በይሖዋ	-3291
ech	-3292
▁reve	-3293
▁ሃይማኖ	-3294
▁sanct	-3295
▁matter	-3296
▁mercy	-3297
▁በሽ	-3298
ምራ	-3299
▁35	-3300
▁እንግዲህ	-3301
▁ያደርጋል	-3302
ያዙ	-3303
rop	-3304
▁አዎ	-3305
ሰሩ	-3306
ቅድ	-3307
▁bas	-3308
▁መልክ	-3309
▁ec	-3310
▁ለውጥ	-3311
▁sacrific	-3312
ሁኑ	-3313
▁አስታው	-3314
ቁት	-3315
▁ከኢ	-3316
▁cre	-3317
▁አላማ	-3318
ንግድ	-3319
▁50	-3320
▁mill	-3321
ቀርቡ	-3322
▁ሰብ	-3323
▁አድርገው	-3324
ልኮ	-3325
cend	-3326
fice	-3327
▁cut	-3328
▁effort	-3329
▁questions	-3330
▁anim	-3331
aw	-3332
ዎችም	-3333
▁ባለስ	-3334
▁አደጋ	-3335
▁የተመ	-3336
▁sacrifice	-3337
ourn	-3338
▁መግለ	-3339
▁chang	-3340
hua	-3341
ረዋል	-3342
ጀራ	-3343
ያቸው	-3344
▁morn	-3345
▁ቶ	-3346
▁individ	-3347
cus	-3348
▁እስቲ	-3349
▁የኢየሱስ	-3350
▁national	-3351
ien	-3352
▁bow	-3353
▁ይኖርብ	-3354
▁ይገባል	-3355
▁ኾ	-3356
ገልግ	-3357
ናውያን	-3358
▁ከመሆኑም	-3359
ier	-3360
oul	-3361
▁ቢያ	-3362
▁attend	-3363
▁ያን	-3364
kind	-3365
▁ten	-3366
erness	-3367
▁certainly	-3368
▁ከጥ	-3369
▁የሚቆ	-3370
▁በውስ	-3371
▁general	-3372
▁message	-3373
ከፍ	-3374
▁የብ	-3375
rupt	-3376
▁clean	-3377
▁happy	-3378
▁ሳለ	-3379
uly	-3380
▁እባ	-3381
▁ይቀ	-3382
▁መሬት	-3383
▁above	-3384
▁share	-3385
▁humans	-3386
ተና	-3387
▁ጠላ	-3388
ችኋለሁ	-3389
gress	-3390
▁marriage	-3391
ጣቸው	-3392
▁በላ	-3393
▁lic	-3394
ty	-3395
ከላከ	-3396
ለቲካ	-3397
ትንና	-3398
▁partic	-3399
▁silver	-3400
▁morning	-3401
▁mountain	-3402
ፈልገ	-3403
▁እረ	-3404
▁fur	-3405
▁በእኔ	-3406
▁ጓደኛ	-3407
ስቴ	-3408
▁eli	-3409
▁ክንድ	-3410
▁በዚያን	-3411
▁treat	-3412
▁messeng	-3413
▁returned	-3414
▁lot	-3415
itted	-3416
itical	-3417
▁makes	-3418
▁ሁኔታዎች	-3419
▁philist	-3420
ፍን	-3421
▁wilderness	-3422
to	-3423
▁anything	-3424
ግና	-3425
▁1,	-3426
▁ምላ	-3427
▁ነዋ	-3428
▁ከበ	-3429
▁ጦርነት	-3430
▁ይሆናል።	-3431
uge	-3432
▁six	-3433
ዮቹ	-3434
▁hour	-3435
father	-3436
▁comfort	-3437
af	-3438
▁ራእይ	-3439
ቆም	-3440
ቀም	-3441
▁መኖር	-3442
▁feet	-3443
▁united	-3444
▁preaching	-3445
ጣው	-3446
▁strengthe	-3447
ልቁ	-3448
ወጥ	-3449
ዳና	-3450
▁እድሜ	-3451
▁purs	-3452
▁unclean	-3453
hew	-3454
▁37	-3455
▁clear	-3456
▁በመጽሃፍ	-3457
▁inheritance	-3458
የቅ	-3459
▁ah	-3460
▁ዝም	-3461
▁ጥፋት	-3462
▁desire	-3463
▁states	-3464
ወረ	-3465
▁ሦ	-3466
▁ዋጋ	-3467
▁hist	-3468
▁hearts	-3469
▁ዩ	-3470
▁ዓመ	-3471
▁ጉዳት	-3472
ግብፅ	-3473
▁ሞት	-3474
▁ሰባት	-3475
▁ድርጊት	-3476
▁burnt	-3477
side	-3478
▁ማድረ	-3479
ደል	-3480
▁ነበሩ።	-3481
▁አድርገ	-3482
▁famil	-3483
ክስ	-3484
▁ተደ	-3485
▁አይሁዳ	-3486
▁yourselves	-3487
ዬን	-3488
▁ጥር	-3489
▁ዮሃንስ	-3490
▁pleas	-3491
▁secret	-3492
ከረ	-3493
aph	-3494
ራም	-3495
▁ዓለም	-3496
right	-3497
▁obey	-3498
▁ፍላጎት	-3499
▁በኢየሩሳሌም	-3500
ጅም	-3501
fered	-3502
▁necess	-3503
▁instead	-3504
▁anointed	-3505
▁sold	-3506
asting	-3507
▁appointed	-3508
▁ቀር	-3509
▁begin	-3510
▁third	-3511
ልስጤ	-3512
▁እሳት	-3513
▁sins	-3514
ንባ	-3515
▁continued	-3516
ጎች	-3517
▁ኩ	-3518
ሆኑት	-3519
crib	-3520
▁የምንችለው	-3521
በበ	-3522
ream	-3523
ባቸዋል	-3524
▁oil	-3525
▁joshua	-3526
▁ሕዝቡ	-3527
▁plan	-3528
▁የሆኑት	-3529
▁strength	-3530
ገኙት	-3531
ጋችሁ	-3532
▁und	-3533
▁desp	-3534
▁ስርአት	-3535
▁named	-3536
▁wall	-3537
▁ነህ	-3538
▁ዘፍ	-3539
▁ችሎታ	-3540
▁knew	-3541
▁allah	-3542
▁question	-3543
▁ኮሚ	-3544
over	-3545
▁መልሶ	-3546
▁/	-3547
▁መቀ	-3548
▁አገሮች	-3549
ናል።	-3550
ዳደር	-3551
▁በኋላም	-3552
▁አጠገብ	-3553
▁እናንተም	-3554
▁apostle	-3555
▁purpose	-3556
▁judgment	-3557
ክቶ	-3558
▁ስህ	-3559
▁soul	-3560
▁repres	-3561
ርና	-3562
▁save	-3563
▁ሰይጣን	-3564
ውነ	-3565
ለህ።	-3566
▁judge	-3567
▁የተለያዩ	-3568
ደርገ	-3569
▁ሰለ	-3570
▁cub	-3571
▁የወይን	-3572
▁raised	-3573
▁luke	-3574
▁whatever	-3575
▁council	-3576
ቃስ	-3577
▁ሳሙ	-3578
▁born	-3579
▁የሚገል	-3580
▁behold	-3581
ለበት	-3582
▁ይሰ	-3583
itude	-3584
▁ማለትም	-3585
itions	-3586
ገስ	-3587
ጨት	-3588
▁ይዘ	-3589
ኛውንም	-3590
▁tab	-3591
▁የሚታ	-3592
▁board	-3593
▁mark	-3594
▁ሃጢአት	-3595
▁የነበረውን	-3596
▁uni	-3597
▁wind	-3598
▁የሚለው	-3599
▁forefather	-3600
ሐፍ	-3601
ፈት	-3602
▁ለራ	-3603
▁ያልተ	-3604
▁small	-3605
▁reward	-3606
▁self	-3607
▁talk	-3608
▁anger	-3609
ባበ	-3610
▁አግኝ	-3611
መለሱ	-3612
ወጣው	-3613
ries	-3614
▁ታሪክ	-3615
▁possible	-3616
ካል	-3617
▁ሁል	-3618
▁ደብ	-3619
▁ከጊዜ	-3620
▁ወደፊት	-3621
ሰላ	-3622
▁የእግዚአብሔር	-3623
ች።	-3624
▁ሲሉ	-3625
▁እነርሱ	-3626
▁school	-3627
▁መጻህ	-3628
▁እኔን	-3629
▁ዝግጅ	-3630
▁የሚቃ	-3631
▁ይሆና	-3632
▁መስጠት	-3633
▁ቤተሰብ	-3634
ውነት	-3635
ances	-3636
▁ማስረጃ	-3637
ቁም	-3638
ደገ	-3639
isf	-3640
ray	-3641
ches	-3642
▁fal	-3643
▁ወለደ	-3644
▁draw	-3645
▁lives	-3646
▁mention	-3647
ሳችሁ	-3648
▁ፈቃደኛ	-3649
▁incre	-3650
▁discuss	-3651
▁ሽማግሌዎች	-3652
ኝም	-3653
▁2.	-3654
▁disp	-3655
ins	-3656
▁mod	-3657
▁ጠቃሚ	-3658
▁ጨምሮ	-3659
▁እንድታ	-3660
▁invol	-3661
▁created	-3662
oid	-3663
▁song	-3664
▁simil	-3665
▁አሊ	-3666
▁success	-3667
▁speaking	-3668
ቡብ	-3669
ዊያ	-3670
ርያው	-3671
ናችሁ	-3672
▁ነቢ	-3673
▁tribe	-3674
ruction	-3675
▁ram	-3676
▁sun	-3677
itate	-3678
▁peoples	-3679
ጠላ	-3680
ials	-3681
▁cop	-3682
▁request	-3683
ቃሴ	-3684
ሉትን	-3685
reci	-3686
ready	-3687
▁taking	-3688
▁concerning	-3689
▁bar	-3690
▁declares	-3691
አን	-3692
▁ጢሞ	-3693
reet	-3694
▁በሰማይ	-3695
▁ከእነዚህ	-3696
▁places	-3697
ሞላ	-3698
ስም	-3699
ድጓ	-3700
ቅስቃሴ	-3701
▁ሉቃስ	-3702
acher	-3703
▁angel	-3704
▁spoke	-3705
▁already	-3706
▁benefit	-3707
▁started	-3708
ኝ።	-3709
ጥረ	-3710
▁prison	-3711
▁record	-3712
▁sister	-3713
ሊዮን	-3714
▁ለሰ	-3715
▁መጨረሻ	-3716
▁ስለነበር	-3717
▁ኢየሩሳሌም	-3718
ዶቹ	-3719
ሯቸው	-3720
▁false	-3721
▁change	-3722
ራው	-3723
▁ወገ	-3724
▁አቅር	-3725
▁dark	-3726
ሴት	-3727
ይህ	-3728
▁፤	-3729
ital	-3730
መለከቱ	-3731
▁gift	-3732
▁including	-3733
▁information	-3734
ዱን	-3735
ምንት	-3736
▁ጠቅ	-3737
▁perform	-3738
▁አስተዋ	-3739
▁ዓይነት	-3740
ank	-3741
▁lab	-3742
▁መልአ	-3743
cially	-3744
ናን	-3745
ወግ	-3746
▁መም	-3747
▁ark	-3748
▁ማወቅ	-3749
▁business	-3750
ለል	-3751
▁በድን	-3752
▁ነገድ	-3753
ሳው	-3754
ሃለሁ	-3755
▁ለወ	-3756
▁ናት	-3757
▁cap	-3758
▁እንደገና	-3759
▁እንዳለው	-3760
▁satisf	-3761
ሮቹ	-3762
ቃሉ	-3763
▁ምስክር	-3764
▁special	-3765
ኛውን	-3766
▁የጎ	-3767
ency	-3768
▁gate	-3769
▁kill	-3770
▁የሚኖሩ	-3771
▁spoken	-3772
▁provided	-3773
ኾኑ	-3774
▁ነን	-3775
▁maj	-3776
▁tou	-3777
ising	-3778
▁፣	-3779
▁መክ	-3780
▁ሰላ	-3781
▁ይመጣ	-3782
▁የሚችል	-3783
▁እንቅስቃሴ	-3784
ሎም	-3785
▁ፀ	-3786
▁ወገን	-3787
ስር	-3788
▁ተመ	-3789
belie	-3790
▁wine	-3791
▁ትክክለኛ	-3792
ቋቋም	-3793
▁4.	-3794
▁ህዝቦች	-3795
▁south	-3796
▁appear	-3797
▁armies	-3798
▁እንደሚያስ	-3799
ፊያ	-3800
jah	-3801
ስተው	-3802
ficult	-3803
vation	-3804
▁daughters	-3805
▁difficult	-3806
▁ጊዜም	-3807
▁assemb	-3808
ራሲ	-3809
ንቱ	-3810
እቆብ	-3811
▁ሰራ	-3812
▁በህይወት	-3813
land	-3814
▁ele	-3815
▁ባህር	-3816
▁attention	-3817
▁scriptures	-3818
bb	-3819
▁mag	-3820
ዑስ	-3821
▁ፈር	-3822
wise	-3823
▁አላህም	-3824
athered	-3825
▁myself	-3826
ግመ	-3827
▁ለሁ	-3828
ires	-3829
oved	-3830
▁helped	-3831
ካራ	-3832
▁ስል	-3833
acle	-3834
ሰጣቸው	-3835
▁appreci	-3836
▁subject	-3837
ዩን	-3838
ጠመ	-3839
▁ፕሬ	-3840
ceed	-3841
▁working	-3842
▁prophets	-3843
በትም	-3844
▁psalm	-3845
▁worth	-3846
▁blessed	-3847
▁families	-3848
ውና	-3849
ግባት	-3850
▁ሶስት	-3851
▁felt	-3852
▁leaders	-3853
ዩት	-3854
▁ደረ	-3855
▁den	-3856
▁አክብ	-3857
▁ከሰማ	-3858
▁በአሁኑ	-3859
▁አደርጋ	-3860
▁በእናንተ	-3861
ፈን	-3862
▁ስድ	-3863
▁exec	-3864
▁cover	-3865
▁behind	-3866
▁sour	-3867
▁gives	-3868
▁circum	-3869
እኖ	-3870
ስታት	-3871
▁ይመ	-3872
▁ቅጣት	-3873
▁poor	-3874
▁ትንቢት	-3875
▁front	-3876
▁justice	-3877
▁represent	-3878
ከባ	-3879
ጋዊ	-3880
aut	-3881
ስታወ	-3882
▁ሰጠ	-3883
▁friends	-3884
ውልድ	-3885
▁ልማ	-3886
▁mis	-3887
▁በእርግጥም	-3888
▁further	-3889
▁mankind	-3890
▁willing	-3891
መኑ	-3892
ደበ	-3893
▁tree	-3894
▁attack	-3895
▁ጌ	-3896
▁የቆ	-3897
ላችሁ።	-3898
▁100	-3899
ature	-3900
ouses	-3901
▁commission	-3902
ሰቦች	-3903
pher	-3904
ሎቹ	-3905
ics	-3906
▁ተጨማሪ	-3907
▁ወዲያውኑ	-3908
የር	-3909
athan	-3910
▁move	-3911
▁መስዋእት	-3912
▁እንደምት	-3913
▁provide	-3914
haps	-3915
▁አልፎ	-3916
▁based	-3917
▁killed	-3918
ያህ	-3919
ior	-3920
▁አውራ	-3921
▁ወጣት	-3922
▁አንብብ	-3923
▁believed	-3924
▁አምስት	-3925
▁grant	-3926
▁hund	-3927
▁reveal	-3928
▁spread	-3929
br	-3930
ራቅ	-3931
ማኝነት	-3932
▁experience	-3933
▁hundred	-3934
▁forefathers	-3935
ሃት	-3936
ored	-3937
▁አራት	-3938
▁learned	-3939
ግባብ	-3940
▁ለህ	-3941
▁ርእስ	-3942
▁የሰማ	-3943
▁waters	-3944
▁fathers	-3945
ባዊ	-3946
ኞችን	-3947
ፍረት	-3948
▁ተጽእኖ	-3949
▁early	-3950
▁stood	-3951
ሰሙ	-3952
▁3.	-3953
▁ሰም	-3954
just	-3955
▁ልብስ	-3956
▁ተቀባ	-3957
▁ተመልከት	-3958
▁matthew	-3959
▁ልን	-3960
▁ጠባ	-3961
▁large	-3962
▁perhaps	-3963
▁gathered	-3964
ሱት	-3965
ኖረ	-3966
ሏቸው	-3967
▁እድ	-3968
▁የዘ	-3969
ገኘውን	-3970
▁bes	-3971
▁እስካ	-3972
▁በመሆኑ	-3973
ጣሪ	-3974
▁abs	-3975
▁ሌሎችን	-3976
▁kindness	-3977
ዳም	-3978
ዳቤ	-3979
▁አዘ	-3980
▁የሚወ	-3981
▁ጥቂት	-3982
▁ሕዝቦች	-3983
▁loving	-3984
▁federal	-3985
▁establish	-3986
▁sovereign	-3987
do	-3988
ከናወን	-3989
▁neg	-3990
▁ጀመረ	-3991
▁held	-3992
▁situation	-3993
▁ሮም	-3994
▁honor	-3995
▁mater	-3996
▁ኑ	-3997
▁ዐ	-3998
ዕቆብ	-3999
▁ዛፍ	-4000
▁lim	-4001
▁refuge	-4002
▁inhabit	-4003
▁everyone	-4004
▁ሆይ፥	-4005
▁የተጠቀ	-4006
▁force	-4007
▁የፖ	-4008
▁north	-4009
itution	-4010
▁እንመልከት	-4011
ማሪዎች	-4012
▁moved	-4013
▁necessary	-4014
ክምና	-4015
▁አደ	-4016
▁eas	-4017
▁min	-4018
▁ንዑስ	-4019
▁bull	-4020
▁አሊያም	-4021
ogn	-4022
▁የዳ	-4023
▁age	-4024
▁ትችላለህ	-4025
▁license	-4026
▁የተሰ	-4027
▁የምድር	-4028
▁slave	-4029
▁master	-4030
▁levites	-4031
ክፉ	-4032
▁አራ	-4033
▁led	-4034
▁የተወ	-4035
▁ሁልጊዜ	-4036
▁serving	-4037
▁personal	-4038
▁problems	-4039
▁teaching	-4040
ጋሚ	-4041
▁የሰጠ	-4042
▁በሚገባ	-4043
▁የለውም	-4044
▁neigh	-4045
ሠሩ	-4046
edi	-4047
ሆንኩ	-4048
ሉ፡፡	-4049
ክርስቲ	-4050
▁step	-4051
▁ተግባራዊ	-4052
▁remind	-4053
ሰር	-4054
▁di	-4055
▁jo	-4056
▁አፈ	-4057
▁espe	-4058
▁qual	-4059
▁ወላጆች	-4060
ታም	-4061
▁የገ	-4062
▁የጽ	-4063
▁ጋዜ	-4064
▁የተቀ	-4065
▁deal	-4066
▁ብርሃን	-4067
▁especially	-4068
▁ፍት	-4069
▁ህዝቡ	-4070
▁cult	-4071
▁በእርሱ	-4072
▁philistines	-4073
▁alone	-4074
▁ብዬ	-4075
▁ተራ	-4076
▁invest	-4077
▁transl	-4078
▁ስሙ	-4079
onom	-4080
▁port	-4081
▁issue	-4082
ሰት	-4083
ኖሪያ	-4084
eric	-4085
▁በታች	-4086
▁neighb	-4087
ከል	-4088
ats	-4089
ended	-4090
ropri	-4091
ዖን	-4092
wor	-4093
▁due	-4094
▁አድርግ	-4095
▁እንድና	-4096
▁አብርሃም	-4097
▁activities	-4098
▁mighty	-4099
▁ደር	-4100
▁ተቀም	-4101
▁ምግባር	-4102
▁illust	-4103
▁recogn	-4104
▁promise	-4105
ንቃ	-4106
▁በገ	-4107
ames	-4108
erved	-4109
▁ምልክት	-4110
▁stone	-4111
▁angels	-4112
▁ሩ	-4113
▁5.	-4114
▁ለል	-4115
▁ገጽ	-4116
▁gather	-4117
▁needed	-4118
▁9.	-4119
ሻል	-4120
▁8.	-4121
▁10.	-4122
ፍሬ	-4123
ari	-4124
ges	-4125
ዘጋጅ	-4126
▁መቼ	-4127
ኖራቸው	-4128
▁የይሁዳ	-4129
▁ጉዳዮች	-4130
▁avoid	-4131
▁journ	-4132
▁እንዲህም	-4133
ገሩ	-4134
ደሪያ	-4135
▁በቤተ	-4136
▁descend	-4137
ርባ	-4138
ግል	-4139
ሕዝቡ	-4140
tern	-4141
▁wanted	-4142
▁standing	-4143
nce	-4144
▁መሰረ	-4145
▁repl	-4146
▁በላቸው	-4147
▁established	-4148
ቀስ	-4149
born	-4150
ቸዋል።	-4151
▁እንደም	-4152
▁ourselves	-4153
▁relationship	-4154
aan	-4155
▁ty	-4156
vest	-4157
▁try	-4158
▁hast	-4159
▁ራሳቸውን	-4160
▁promised	-4161
ካት	-4162
▁ከፊ	-4163
▁የፈ	-4164
▁ድል	-4165
▁አድርጓ	-4166
▁ተናግሯል	-4167
▁rights	-4168
ያቂ	-4169
▁ዘገባ	-4170
▁crow	-4171
▁fell	-4172
▁becom	-4173
▁battle	-4174
▁century	-4175
ለመ	-4176
እን	-4177
ጋፍ	-4178
ዋለሁ	-4179
▁dri	-4180
▁longer	-4181
▁passed	-4182
ጣጫ	-4183
▁sle	-4184
▁የአባ	-4185
ordan	-4186
▁built	-4187
▁chall	-4188
▁milit	-4189
▁እንደሚችል	-4190
ለፍ	-4191
ሰና	-4192
▁ነፋ	-4193
▁ከሞት	-4194
▁understanding	-4195
▁ዶ	-4196
used	-4197
▁ተመሳሳይ	-4198
ፌዴ	-4199
▁ቀላል	-4200
▁ሺህ	-4201
▁ቁጥ	-4202
▁ፍር	-4203
▁ወይስ	-4204
▁americ	-4205
▁jordan	-4206
▁አዛ	-4207
▁አብረው	-4208
▁quick	-4209
zek	-4210
ስታው	-4211
▁መቃ	-4212
▁ባሕ	-4213
▁12.	-4214
▁17.	-4215
▁የበላይ	-4216
▁ያደረገ	-4217
▁bound	-4218
▁immedi	-4219
▁greater	-4220
ዋቂ	-4221
▁7.	-4222
▁ሌላው	-4223
▁ሃሳ	-4224
▁hur	-4225
▁ጥቃት	-4226
▁ስህተት	-4227
▁መሥዋዕት	-4228
ቃቸው	-4229
▁ራሱ	-4230
▁ምርጫ	-4231
▁የሚገባ	-4232
▁birth	-4233
▁responsib	-4234
መቱ	-4235
ላዊው	-4236
▁በቁ	-4237
▁ወዲህ	-4238
▁afric	-4239
▁president	-4240
ደድ	-4241
ጠነ	-4242
ስማማ	-4243
ሳይያስ	-4244
▁14.	-4245
ሴን	-4246
▁ተቋ	-4247
▁እግ	-4248
▁ዳን	-4249
ውያንም	-4250
▁በራሱ	-4251
▁እዚህ	-4252
▁መዛሙርቱ	-4253
▁ለእኔ	-4254
▁የመጨረሻ	-4255
ነበ	-4256
▁sex	-4257
▁ተከታ	-4258
▁በአንተ	-4259
▁አለቆች	-4260
▁በእግዚአብሔር	-4261
▁offerings	-4262
ለቀ	-4263
▁አቶ	-4264
▁ቂ	-4265
ቀመጥ	-4266
▁አባል	-4267
▁ቦታዎች	-4268
▁ማንኛውንም	-4269
ከናው	-4270
▁ብል	-4271
▁equ	-4272
▁samuel	-4273
▁contrib	-4274
▁shepher	-4275
▁throughout	-4276
ሰቢያ	-4277
▁መድ	-4278
▁dut	-4279
atives	-4280
▁grain	-4281
ነቱን	-4282
▁ቁጣ	-4283
▁በፈ	-4284
▁የተሻለ	-4285
▁loved	-4286
▁knowing	-4287
ቤቴ	-4288
ዴታ	-4289
▁ge	-4290
▁ዜና	-4291
▁ገዢ	-4292
▁guard	-4293
▁months	-4294
▁36	-4295
▁ቤቶች	-4296
▁ድምፅ	-4297
▁በሆነው	-4298
▁ጥያቄዎች	-4299
▁officials	-4300
ne	-4301
ዋት	-4302
▁6.	-4303
ione	-4304
ንግዲህ	-4305
shipp	-4306
▁cast	-4307
▁play	-4308
▁pione	-4309
ተህ	-4310
▁ዓይ	-4311
▁town	-4312
▁ቅዱሳን	-4313
itting	-4314
ቆይ	-4315
▁መፍ	-4316
▁bear	-4317
▁alive	-4318
▁truly	-4319
▁speech	-4320
መነ	-4321
▁ቴ	-4322
ows	-4323
▁ሚስ	-4324
▁accom	-4325
▁sight	-4326
▁እጁ	-4327
▁hor	-4328
▁political	-4329
ምሩ	-4330
▁ለሌሎች	-4331
▁በእሳት	-4332
▁beaut	-4333
ቀረቡ	-4334
▁ተሸ	-4335
▁ይቻ	-4336
▁east	-4337
▁ሁሉንም	-4338
▁መሪዎች	-4339
▁መግለጫ	-4340
▁start	-4341
▁ነዋሪዎች	-4342
ልያ	-4343
▁ቻ	-4344
ፈጸመ	-4345
▁አእ	-4346
ጋና	-4347
raid	-4348
▁ሕይወት	-4349
▁በመንፈስ	-4350
▁ኢየሱስም	-4351
▁ይኖርብናል	-4352
▁counsel	-4353
ሙያ	-4354
እኔ	-4355
ኩስ	-4356
▁ይወ	-4357
ንኛውም	-4358
▁adam	-4359
▁short	-4360
▁እንደሆኑ	-4361
▁appropri	-4362
▁punishment	-4363
ላችን	-4364
ካባቢ	-4365
▁run	-4366
▁defe	-4367
▁group	-4368
▁needs	-4369
▁መንገዶች	-4370
ዙፋ	-4371
▁ብሔ	-4372
▁ርስት	-4373
▁firm	-4374
▁የሚያደርጉ	-4375
▁international	-4376
ቤል	-4377
lled	-4378
▁bal	-4379
▁በዚህም	-4380
▁students	-4381
hen	-4382
▁ይፈ	-4383
▁cal	-4384
▁ምላሽ	-4385
▁beth	-4386
▁ከሌሎች	-4387
▁struck	-4388
▁እንደነበር	-4389
ፈለግ	-4390
▁ተን	-4391
▁16.	-4392
▁ማየት	-4393
▁የሚፈ	-4394
▁claim	-4395
▁አንዳንዶች	-4396
አል	-4397
ዋም	-4398
app	-4399
ንጉሡ	-4400
▁ሆኑ	-4401
▁በጉ	-4402
▁“‘	-4403
▁በብዙ	-4404
▁በእነዚህ	-4405
▁tabern	-4406
▁የከ	-4407
ular	-4408
▁ትንሽ	-4409
▁gone	-4410
▁እነሱን	-4411
▁rejoice	-4412
ቦችን	-4413
ዳችሁ	-4414
▁መዋ	-4415
head	-4416
▁jon	-4417
▁reb	-4418
▁መንግሥ	-4419
▁የበለጠ	-4420
▁ሃላፊነት	-4421
አም	-4422
▁መላእ	-4423
▁houses	-4424
▁wonder	-4425
▁resurrection	-4426
▁የዋ	-4427
iter	-4428
▁ተነሳ	-4429
▁አበባ	-4430
▁ካህና	-4431
▁arri	-4432
▁cubits	-4433
▁democr	-4434
▁accordance	-4435
ሳተ	-4436
ዛብ	-4437
ለን።	-4438
▁13.	-4439
▁cry	-4440
otion	-4441
▁pain	-4442
▁በይሁዳ	-4443
▁ደብዳቤ	-4444
▁ያላቸውን	-4445
ህንም	-4446
▁ሰባ	-4447
▁በህይወ	-4448
▁ይቻላል	-4449
ታማ	-4450
ናቂ	-4451
ኾነ	-4452
ዝብ	-4453
ቱንም	-4454
▁ይገ	-4455
uted	-4456
▁air	-4457
▁ሊያስ	-4458
▁ወዳጅ	-4459
▁አመራር	-4460
▁household	-4461
ርክ	-4462
ባለው	-4463
ንበት	-4464
ጋቸው	-4465
▁ድምጽ	-4466
▁እርግጠ	-4467
▁ጠንካራ	-4468
▁ሃዋርያው	-4469
▁former	-4470
ንዱ	-4471
▁አሸ	-4472
▁አቋ	-4473
▁bord	-4474
▁መልእክ	-4475
▁በመሆን	-4476
▁ኃጢአት	-4477
▁የንግድ	-4478
▁ይናገራል	-4479
▁afraid	-4480
▁possess	-4481
amin	-4482
icles	-4483
▁half	-4484
▁subm	-4485
▁38	-4486
▁ጸሃ	-4487
▁lay	-4488
▁በሌሎች	-4489
▁regarding	-4490
▁15.	-4491
▁dam	-4492
▁በአል	-4493
▁እንስሳ	-4494
▁አልነበረም	-4495
ለቆ	-4496
ራብ	-4497
▁ቆሮ	-4498
▁ver	-4499
▁ለማሳ	-4500
▁sett	-4501
▁mountains	-4502
acy	-4503
▁ut	-4504
▁ሰአት	-4505
▁ካለው	-4506
▁አድርጉ	-4507
▁lived	-4508
▁ያደረገው	-4509
ጠረ	-4510
ፏል	-4511
ጥፋት	-4512
▁ep	-4513
▁11.	-4514
ገልግሎት	-4515
▁laws	-4516
▁ከእርሱ	-4517
▁history	-4518
▁inhabitants	-4519
gn	-4520
ነፍ	-4521
ኾን	-4522
ጋል	-4523
▁ገባ	-4524
▁tor	-4525
▁ባልን	-4526
▁በእነሱ	-4527
▁እርግጥ	-4528
▁ልጆቹ	-4529
▁ተጠቅ	-4530
▁ይጠብ	-4531
▁የኮ	-4532
raph	-4533
▁jehovahs	-4534
ገልጋ	-4535
▁አቢ	-4536
▁sick	-4537
▁አንድነት	-4538
ication	-4539
▁sacrifices	-4540
ንነት	-4541
▁ከስ	-4542
▁deb	-4543
▁ድጋፍ	-4544
▁weak	-4545
▁hebrew	-4546
▁addition	-4547
ደብ	-4548
zar	-4549
ካፈል	-4550
ወቅቱ	-4551
utes	-4552
ነጋገር	-4553
▁resc	-4554
▁ትምህር	-4555
▁በኢትዮጵያ	-4556
▁ይችላል፡፡	-4557
▁evidence	-4558
ጠቃ	-4559
▁ያዘ	-4560
▁ውጤት	-4561
▁ሳሙኤል	-4562
▁evening	-4563
▁meetings	-4564
▁military	-4565
iod	-4566
ots	-4567
▁ጠየ	-4568
▁ፈተና	-4569
▁ident	-4570
▁decisions	-4571
▁gri	-4572
▁እነርሱም	-4573
▁corrupt	-4574
▁tabernacle	-4575
▁ገበ	-4576
▁gal	-4577
▁spr	-4578
▁ክልል	-4579
▁የገባ	-4580
▁ዝግጅት	-4581
▁ባለስልጣ	-4582
▁salvation	-4583
▁ፖሊ	-4584
▁doub	-4585
▁ለይሖዋ	-4586
▁focus	-4587
▁training	-4588
▁መጋ	-4589
ager	-4590
▁ቡድን	-4591
▁ከእኛ	-4592
▁phys	-4593
▁rule	-4594
▁vict	-4595
▁ይሖዋን	-4596
▁ማስተዋል	-4597
ጻሜ	-4598
▁ሻ	-4599
▁ቀድ	-4600
▁ከሚያ	-4601
cious	-4602
▁የሚገኘው	-4603
ለች።	-4604
ከታተ	-4605
▁ሙሴን	-4606
▁እዚያ	-4607
▁glor	-4608
ulation	-4609
ሰረ	-4610
ቷል።	-4611
▁area	-4612
▁መጻህፍት	-4613
▁reject	-4614
▁matters	-4615
▁garments	-4616
ax	-4617
ምም	-4618
▁ነፃ	-4619
▁ከሃ	-4620
▁point	-4621
▁የሚለውን	-4622
▁period	-4623
▁collect	-4624
▁development	-4625
ጀል	-4626
fer	-4627
uals	-4628
▁noah	-4629
▁tong	-4630
▁ሥርዓት	-4631
▁እውቀት	-4632
▁canaan	-4633
ush	-4634
▁ጠጅ	-4635
▁በመን	-4636
orrow	-4637
▁entr	-4638
ላማ	-4639
ረግ	-4640
ቼን	-4641
▁ቁር	-4642
ሳች	-4643
ዝቡ	-4644
ጥን	-4645
val	-4646
ንቀት	-4647
▁ፈረ	-4648
ራቸውን	-4649
ቆጣጠር	-4650
▁ሰዎችም	-4651
▁በአለም	-4652
▁ባለሙያ	-4653
▁እግዚአብሔርም	-4654
▁appropriate	-4655
ዳብ	-4656
ጀት	-4657
▁ሱ	-4658
▁ምእ	-4659
▁የሕ	-4660
▁የመጣ	-4661
▁possession	-4662
ቀል	-4663
rit	-4664
▁ምናል	-4665
▁ኢዮብ	-4666
▁mult	-4667
▁stat	-4668
▁guilt	-4669
ቋቋ	-4670
ፍታ	-4671
▁የቅ	-4672
ases	-4673
▁በቅርቡ	-4674
▁እንደሌ	-4675
▁ኢየሱስን	-4676
ግለ	-4677
▁ማዕ	-4678
▁ፍጹም	-4679
▁imple	-4680
▁ኢሳይያስ	-4681
ያውቁ	-4682
▁በነገ	-4683
iding	-4684
▁ማቴዎስ	-4685
▁ችግሮች	-4686
▁ስምምነት	-4687
ኤስ	-4688
ወቁ	-4689
ጠቀሙ	-4690
▁ጸጋ	-4691
alley	-4692
▁male	-4693
▁የተወሰ	-4694
▁addis	-4695
▁outside	-4696
▁አነ	-4697
ሞክራሲ	-4698
▁pet	-4699
▁ይላሉ	-4700
▁harm	-4701
▁valley	-4702
ሰን	-4703
ዝና	-4704
▁በደል	-4705
▁ታውቃ	-4706
▁ያወጣ	-4707
▁bran	-4708
▁break	-4709
▁determined	-4710
ቴዎስ	-4711
ነሱም	-4712
▁ጠይ	-4713
ርምያስ	-4714
▁በማስ	-4715
▁ብዙዎች	-4716
▁አግባብ	-4717
ቷን	-4718
ንጸ	-4719
ኦን	-4720
ዳል	-4721
▁ba	-4722
▁የጋ	-4723
▁alm	-4724
▁filled	-4725
▁isaiah	-4726
▁prepared	-4727
▁statement	-4728
ምለ	-4729
sen	-4730
▁ልጃ	-4731
▁ጓደ	-4732
▁door	-4733
▁አይገባ	-4734
▁throne	-4735
▁describ	-4736
▁agreement	-4737
▁በጸ	-4738
▁እብ	-4739
▁ዕቃ	-4740
rage	-4741
▁መልአክ	-4742
▁ብላለች	-4743
▁የሚያስችል	-4744
▁ancient	-4745
▁assembly	-4746
by	-4747
ግመኛ	-4748
▁በሰው	-4749
▁ከሁሉ	-4750
▁አንድም	-4751
▁አይኖር	-4752
▁immediately	-4753
አቸው	-4754
▁esc	-4755
▁አይቀር	-4756
▁ወገኖች	-4757
▁measure	-4758
በሳ	-4759
ፖርት	-4760
▁sud	-4761
▁መዝሙ	-4762
▁educ	-4763
▁offered	-4764
▁thinking	-4765
ለኝ	-4766
መም	-4767
ቀቅ	-4768
▁ስላል	-4769
▁ምድርን	-4770
▁ትክክል	-4771
▁አቅጣጫ	-4772
▁everl	-4773
ስሃ	-4774
ላቸውም	-4775
▁rich	-4776
cience	-4777
▁prover	-4778
ጮች	-4779
መለክ	-4780
▁መተ	-4781
▁በጌታ	-4782
▁አለኝ	-4783
መለከተው	-4784
▁none	-4785
▁entire	-4786
▁fulfill	-4787
ጨነ	-4788
▁45	-4789
▁ስታ	-4790
▁wid	-4791
▁ለማወቅ	-4792
▁የሚያሳይ	-4793
▁encourage	-4794
ria	-4795
▁በሽታ	-4796
▁reign	-4797
▁product	-4798
ባለ	-4799
▁ant	-4800
▁ተግባር	-4801
▁serious	-4802
▁believers	-4803
▁everlasting	-4804
ማረ	-4805
ጡ።	-4806
▁ሰማይ	-4807
▁ጸሎት	-4808
▁ከአንድ	-4809
▁እያንዳን	-4810
▁ሌዋ	-4811
▁ያላ	-4812
▁top	-4813
▁compet	-4814
▁instruct	-4815
ቅል	-4816
▁pill	-4817
▁affect	-4818
▁implement	-4819
ቃይ	-4820
ለህ፤	-4821
▁እላ	-4822
▁እቃ	-4823
anger	-4824
▁ንብረት	-4825
▁አይሁዳውያን	-4826
io	-4827
ወገድ	-4828
▁አቀፍ	-4829
▁laid	-4830
▁ማሳየት	-4831
idered	-4832
▁ተቀባይነት	-4833
▁forward	-4834
▁workers	-4835
▁ሞገስ	-4836
▁road	-4837
▁በዙሪያ	-4838
▁perfect	-4839
amb	-4840
str	-4841
ግብጽ	-4842
▁ኃይ	-4843
imin	-4844
ples	-4845
ቶቻችን	-4846
▁18.	-4847
▁lie	-4848
▁ori	-4849
▁distress	-4850
ውጣት	-4851
ably	-4852
ortun	-4853
▁taught	-4854
▁respond	-4855
▁disbelie	-4856
▁opportun	-4857
ung	-4858
ውሰድ	-4859
▁ምኞ	-4860
▁fle	-4861
▁እሷም	-4862
▁የሚመ	-4863
▁likely	-4864
▁followed	-4865
ሄደ	-4866
ከተማዋ	-4867
▁አቤቱ	-4868
▁wives	-4869
▁ስለሆነም	-4870
▁decided	-4871
ጆቹ	-4872
ችሉት	-4873
▁ቢሮ	-4874
ገለግሉ	-4875
▁bey	-4876
▁በምድ	-4877
▁ዳርቻ	-4878
▁በወቅቱ	-4879
▁ዳግመኛ	-4880
▁midst	-4881
▁signs	-4882
▁daniel	-4883
▁opened	-4884
▁courage	-4885
▁experien	-4886
▁religion	-4887
ባሉ	-4888
use	-4889
▁ተር	-4890
▁የሁ	-4891
▁የኦ	-4892
▁ጥላ	-4893
▁አስቸ	-4894
▁offs	-4895
▁ስልጣን	-4896
▁using	-4897
ረፍ	-4898
ator	-4899
▁west	-4900
▁አምልኮ	-4901
▁ወጣቶች	-4902
▁countries	-4903
▁mentioned	-4904
ዝን	-4905
▁አድርጌ	-4906
▁jerem	-4907
▁similar	-4908
▁heavenly	-4909
▁material	-4910
▁worshipp	-4911
ቻችሁን	-4912
▁ለእኛ	-4913
▁ሌሊት	-4914
▁ባሉት	-4915
▁lost	-4916
▁ማስታወ	-4917
▁ሞተ	-4918
▁ተቆ	-4919
▁mal	-4920
▁ትሆና	-4921
▁apply	-4922
▁thine	-4923
▁ለመስጠት	-4924
▁የሚቆጠሩ	-4925
▁problem	-4926
▁forgiven	-4927
ሪው	-4928
በትና	-4929
ging	-4930
▁sad	-4931
▁ኢያሱ	-4932
▁foot	-4933
ጠቅ	-4934
ምላካ	-4935
ደረጉት	-4936
▁የስራ	-4937
▁በስተቀር	-4938
▁gir	-4939
▁ባለሥ	-4940
▁ያደረ	-4941
▁ለአንተ	-4942
ሸከ	-4943
ድም	-4944
uter	-4945
▁እርሻ	-4946
▁ግዴታ	-4947
▁ጽድቅ	-4948
▁ፍጻሜ	-4949
pring	-4950
▁dece	-4951
▁stra	-4952
▁ማረጋገ	-4953
▁አንተን	-4954
▁clearly	-4955
▁baptized	-4956
ደነ	-4957
▁ዴ	-4958
▁da	-4959
▁pie	-4960
▁rese	-4961
▁river	-4962
▁caused	-4963
▁offspring	-4964
par	-4965
unt	-4966
▁በቂ	-4967
▁አሮ	-4968
▁ሳኦል	-4969
▁በሰይ	-4970
▁ብለህ	-4971
▁exist	-4972
▁የሚያደርግ	-4973
ቆት	-4974
ንታ	-4975
ነትን	-4976
ወጣት	-4977
ስተኛው	-4978
▁እንደማ	-4979
▁አገልግሎ	-4980
▁moreover	-4981
erc	-4982
▁ልታ	-4983
▁stones	-4984
▁destroyed	-4985
ets	-4986
▁ክን	-4987
ላችንም	-4988
▁ሃጢአ	-4989
▁ሲባል	-4990
▁insp	-4991
▁የሚችሉ	-4992
▁isaac	-4993
▁አለበት፡፡	-4994
▁process	-4995
ik	-4996
ኩር	-4997
ትምህ	-4998
ጠበቀ	-4999
▁የተለየ	-5000
▁legal	-5001
▁depart	-5002
ug	-5003
▁መና	-5004
▁ለመሆን	-5005
▁event	-5006
▁knows	-5007
▁carried	-5008
ረዳን	-5009
▁vine	-5010
▁fully	-5011
▁dwelling	-5012
▁maintain	-5013
▁religious	-5014
▁individuals	-5015
ገዱ	-5016
▁ካለ	-5017
▁ኃይል	-5018
▁የሚሰ	-5019
▁moab	-5020
▁publ	-5021
▁wide	-5022
▁በመላው	-5023
▁ይኖራል	-5024
ቻለው	-5025
▁che	-5026
▁else	-5027
▁beast	-5028
▁jeremiah	-5029
ዳው	-5030
መለከ	-5031
▁አህ	-5032
▁አምላክህ	-5033
▁destruction	-5034
ታኝ	-5035
▁ኬ	-5036
▁ላከ	-5037
▁ሰር	-5038
▁የዮ	-5039
▁አያስ	-5040
▁deeds	-5041
ሬን	-5042
ዊያው	-5043
ፊዎች	-5044
▁ቀጠ	-5045
▁ከታ	-5046
▁sus	-5047
▁mine	-5048
▁sort	-5049
ስበ	-5050
ነካ	-5051
iers	-5052
▁ለእሱ	-5053
▁ከአባ	-5054
▁ያለን	-5055
▁join	-5056
▁በጉባኤ	-5057
▁issued	-5058
▁investig	-5059
ና፤	-5060
com	-5061
med	-5062
ችውን	-5063
▁sum	-5064
▁ይዘው	-5065
antly	-5066
▁sense	-5067
▁የሚችለው	-5068
▁design	-5069
▁travel	-5070
ሊዝ	-5071
ክን	-5072
▁benj	-5073
▁considered	-5074
ሊና	-5075
ዘጋጁ	-5076
ይማኖ	-5077
▁ሉአ	-5078
empt	-5079
▁elect	-5080
▁married	-5081
ቅያስ	-5082
ችንና	-5083
▁ባሉ	-5084
▁anx	-5085
▁ይወስ	-5086
▁እንዳት	-5087
▁ናቸው፡፡	-5088
▁አስደሳች	-5089
▁chosen	-5090
▁thereof	-5091
▁apostles	-5092
ወሰን	-5093
▁በቀር	-5094
▁ድርሻ	-5095
ciple	-5096
▁oper	-5097
▁rise	-5098
▁treas	-5099
▁አገልጋይ	-5100
ክብ	-5101
plf	-5102
ቶችና	-5103
▁lif	-5104
▁መጽሐፍ	-5105
▁በደስታ	-5106
▁seeing	-5107
ral	-5108
▁መጥቶ	-5109
▁በጎች	-5110
▁የሚያው	-5111
▁compl	-5112
▁በሚገኘው	-5113
▁እንደምን	-5114
ርያም	-5115
ላቸዋል	-5116
▁በእጅ	-5117
▁አቅኚ	-5118
▁እያለ	-5119
▁escap	-5120
▁princes	-5121
ረጋግ	-5122
ፈልገው	-5123
▁fac	-5124
▁የያዘ	-5125
▁happen	-5126
ቱና	-5127
ኸው	-5128
esh	-5129
yard	-5130
▁var	-5131
▁border	-5132
▁showed	-5133
ኖሩት	-5134
ቻችንን	-5135
▁ira	-5136
▁object	-5137
▁ዞ	-5138
ops	-5139
▁ለኢ	-5140
▁ጥን	-5141
▁አሳይ	-5142
▁እምነ	-5143
▁ይገል	-5144
▁didn	-5145
▁cross	-5146
▁በመንፈሳዊ	-5147
▁animals	-5148
ፉን	-5149
ael	-5150
but	-5151
sec	-5152
ራችን	-5153
▁ደንብ	-5154
bbath	-5155
▁deli	-5156
▁ሰለሞን	-5157
▁አሉት።	-5158
▁እንዳያ	-5159
▁የአለም	-5160
▁corin	-5161
▁enemy	-5162
▁ኤርምያስ	-5163
▁origin	-5164
▁የተናገረው	-5165
▁looking	-5166
ገናኛ	-5167
ጠብቅ	-5168
▁ዘዴ	-5169
▁የሠ	-5170
▁ይቆ	-5171
raim	-5172
▁tal	-5173
▁በረከት	-5174
▁songs	-5175
▁አስደናቂ	-5176
▁sabbath	-5177
ምፒ	-5178
now	-5179
hood	-5180
▁low	-5181
▁path	-5182
▁consum	-5183
▁prepare	-5184
▁sisters	-5185
▁teacher	-5186
▁blessing	-5187
ሊክ	-5188
ሮም	-5189
ቀን	-5190
ውያኑ	-5191
ነርሱም	-5192
▁ast	-5193
▁በእኛ	-5194
▁devil	-5195
ዘዙ	-5196
oted	-5197
ሮንቶስ	-5198
ቸዋለሁ	-5199
▁ቃላት	-5200
▁የማያ	-5201
rence	-5202
▁ያእቆብ	-5203
▁cloth	-5204
▁በኢየሱስ	-5205
▁እንዲሆኑ	-5206
ለድ	-5207
ጫወ	-5208
oral	-5209
▁ሰጥቶ	-5210
▁exerc	-5211
▁freed	-5212
▁super	-5213
▁beyond	-5214
▁meaning	-5215
▁related	-5216
▁በመጀመሪያው	-5217
ም፥	-5218
ረተ	-5219
men	-5220
▁39	-5221
▁ቆይ	-5222
▁ተከ	-5223
▁ሦስት	-5224
▁አሳልፎ	-5225
▁አደረጉ	-5226
▁የሚሆን	-5227
▁ድንጋይ	-5228
▁መሰረታዊ	-5229
▁repent	-5230
▁benjamin	-5231
▁ጥበበ	-5232
▁አስተሳ	-5233
▁police	-5234
ጻፈው	-5235
▁እለት	-5236
▁ጠባቂ	-5237
▁ጥልቅ	-5238
▁mary	-5239
▁ፕሮግራ	-5240
ba	-5241
▁1.	-5242
▁ዝር	-5243
▁ተደር	-5244
▁ገደማ	-5245
▁iraq	-5246
▁ካህናት	-5247
▁speci	-5248
▁ከእስራኤል	-5249
▁ረድ	-5250
▁ይጨ	-5251
iled	-5252
▁በተለይ	-5253
▁position	-5254
▁commandments	-5255
ቻለሁ	-5256
ፈጸሙ	-5257
▁ቅድ	-5258
▁ታስ	-5259
▁ens	-5260
▁ሰይፍ	-5261
▁ነቢያ	-5262
▁እንቅ	-5263
▁ወስዶ	-5264
▁week	-5265
▁መኖሪያ	-5266
▁proper	-5267
▁served	-5268
ሕዝብ	-5269
ፈለገ	-5270
▁ልጄ	-5271
ners	-5272
▁191	-5273
▁territ	-5274
▁suffering	-5275
ዓብ	-5276
ልናል	-5277
▁በዋ	-5278
▁ገለ	-5279
▁በማይ	-5280
▁infl	-5281
▁የጉባኤ	-5282
▁trees	-5283
▁የነበሩትን	-5284
▁quickly	-5285
!”	-5286
ርዱ	-5287
ደቀ	-5288
▁ዘይት	-5289
▁search	-5290
▁ephraim	-5291
▁require	-5292
▁regional	-5293
ማችሁ	-5294
ንቀሳ	-5295
uary	-5296
▁ንጉሱ	-5297
▁mist	-5298
▁genes	-5299
▁level	-5300
▁reflect	-5301
vent	-5302
▁ደስተኛ	-5303
▁resol	-5304
▁የተወሰነ	-5305
▁principl	-5306
ለቅ	-5307
ሰጠን	-5308
▁ብዙም	-5309
▁ship	-5310
▁ሠራተኛ	-5311
▁grand	-5312
▁አስቀድሞ	-5313
▁ከእንግዲህ	-5314
▁ከህ	-5315
▁በርስ	-5316
▁አድርጓል	-5317
▁econom	-5318
▁entered	-5319
▁darkness	-5320
▁explained	-5321
ped	-5322
መለሰ	-5323
▁የሳ	-5324
ርዳኖስ	-5325
ከተለው	-5326
▁ለማስተ	-5327
▁ዳዊትም	-5328
▁አክብሮት	-5329
▁compass	-5330
ኝን	-5331
hon	-5332
ols	-5333
seh	-5334
ደርሱ	-5335
itor	-5336
ገለግል	-5337
▁tom	-5338
▁በምን	-5339
▁አደረ	-5340
▁rain	-5341
▁መናገር	-5342
▁በመንግ	-5343
▁ያውቃል	-5344
የን	-5345
umb	-5346
▁ሄዱ	-5347
▁ነጥ	-5348
come	-5349
here	-5350
▁ኃጢአ	-5351
▁የደረ	-5352
round	-5353
▁obed	-5354
▁demon	-5355
▁looked	-5356
▁የክርስቶስ	-5357
▁genesis	-5358
ማማ	-5359
ኪና	-5360
ገነዘ	-5361
▁ሊቀ	-5362
▁ልጁን	-5363
▁አጥብ	-5364
▁የጌታ	-5365
▁ጎዳና	-5366
▁ድንኳኑ	-5367
▁blind	-5368
▁major	-5369
▁common	-5370
▁timoth	-5371
gu	-5372
ሥር	-5373
ጻፈ	-5374
oam	-5375
▁አመጣ	-5376
▁gard	-5377
▁ሚኒስት	-5378
ilities	-5379
▁enough	-5380
▁manner	-5381
▁hearing	-5382
▁principles	-5383
▁ፊል	-5384
▁ፍቅ	-5385
esty	-5386
▁ለሰው	-5387
▁ብለን	-5388
aries	-5389
▁appe	-5390
▁መቅደስ	-5391
▁revel	-5392
▁forgive	-5393
▁ክር	-5394
ባቢሎን	-5395
▁ንጹህ	-5396
▁መጥተው	-5397
▁dream	-5398
▁revealed	-5399
co	-5400
oms	-5401
ሪቱን	-5402
ጥነት	-5403
ፈጽም	-5404
▁lack	-5405
▁መቅደሱ	-5406
▁ዳንኤል	-5407
▁crowd	-5408
▁party	-5409
ቃችሁ	-5410
ባችን	-5411
aged	-5412
▁አውጥ	-5413
▁ይሁዳ	-5414
▁አለው፦	-5415
▁የተባለው	-5416
▁building	-5417
▁strengthen	-5418
ባብ	-5419
ይቱ	-5420
▁ቲ	-5421
ነውን	-5422
lict	-5423
oned	-5424
▁ስርአ	-5425
▁በመስጠት	-5426
▁timothy	-5427
▁reported	-5428
ርንጫ	-5429
▁ዝና	-5430
▁የዓ	-5431
▁clot	-5432
▁ተነስቶ	-5433
▁apart	-5434
▁separ	-5435
▁thanks	-5436
▁eritrea	-5437
▁seeking	-5438
▁univers	-5439
▁precious	-5440
ዳጅ	-5441
lig	-5442
ዛቸው	-5443
▁arr	-5444
▁መለሰ	-5445
▁heads	-5446
▁አስቸጋሪ	-5447
ሟላ	-5448
ጻር	-5449
▁የጸ	-5450
ላችሁን	-5451
▁ርኩስ	-5452
▁gain	-5453
▁seed	-5454
▁ተመልካ	-5455
ressed	-5456
▁አብዛኞቹ	-5457
▁አይቀርም	-5458
▁አንዳንዶቹ	-5459
ham	-5460
▁የተፈ	-5461
ggest	-5462
▁imag	-5463
▁የሚሆኑ	-5464
▁chari	-5465
▁suggest	-5466
▁ሰዎቹ	-5467
ively	-5468
▁youth	-5469
▁ሁላችንም	-5470
▁stated	-5471
▁reached	-5472
▁surround	-5473
ን፣	-5474
ook	-5475
▁70	-5476
cing	-5477
▁እህት	-5478
▁ጻድቅ	-5479
▁bethel	-5480
▁committ	-5481
▁proverbs	-5482
ea	-5483
ለት።	-5484
መጣው	-5485
ምጣት	-5486
▁ማለ	-5487
▁boy	-5488
▁bra	-5489
▁pal	-5490
▁አባቴ	-5491
ically	-5492
▁applic	-5493
▁observe	-5494
▁60	-5495
▁ሥጋ	-5496
▁ግራ	-5497
▁cove	-5498
▁wants	-5499
ረኛ	-5500
ከሩ	-5501
....	-5502
aper	-5503
▁overse	-5504
▁propert	-5505
cu	-5506
ርነት	-5507
▁ሆን	-5508
▁ወጥቶ	-5509
▁እባክህ	-5510
▁ክፍሎች	-5511
fection	-5512
▁notice	-5513
▁recall	-5514
▁finally	-5515
▁feelings	-5516
▁beginning	-5517
ነስ	-5518
dle	-5519
ነበሩ	-5520
▁ማእ	-5521
▁ምሽ	-5522
ሳቸውን	-5523
▁198	-5524
▁ሚኒስቴ	-5525
▁ቅርንጫ	-5526
▁ይፈልጋ	-5527
▁aband	-5528
ፍና	-5529
▁ግድ	-5530
▁ነፍስ	-5531
▁ወርቅ	-5532
▁horn	-5533
▁surv	-5534
▁ለእነሱ	-5535
ኮኖ	-5536
ጸል	-5537
▁ዱ	-5538
▁41	-5539
▁ሰነ	-5540
ስጠንቀ	-5541
ences	-5542
▁tear	-5543
▁behalf	-5544
▁official	-5545
▁firstborn	-5546
ለሽ	-5547
ሳኤ	-5548
ችም	-5549
ላል።	-5550
ል፡፡	-5551
ፈጠረ	-5552
rove	-5553
ንጸባረ	-5554
▁pit	-5555
▁አቋም	-5556
▁አዳም	-5557
▁dise	-5558
▁perm	-5559
▁pros	-5560
▁ድንጋጌ	-5561
▁ጥርጥር	-5562
▁privile	-5563
ሳችን	-5564
በራቸው	-5565
ገለጸው	-5566
▁በስብ	-5567
▁አሉ።	-5568
▁አድራ	-5569
▁በነበረ	-5570
▁ለእስራኤል	-5571
▁departed	-5572
▁presence	-5573
ሞቱ	-5574
ንቶ	-5575
ዋሚ	-5576
ነዚያ	-5577
alth	-5578
hers	-5579
▁ago	-5580
▁ara	-5581
▁term	-5582
▁ያልሆነ	-5583
▁ahead	-5584
▁flock	-5585
▁sever	-5586
▁undes	-5587
▁direction	-5588
▁administration	-5589
ማሩ	-5590
ኳንን	-5591
▁beg	-5592
▁opposition	-5593
ካባቢው	-5594
▁በትክ	-5595
▁ናችሁ	-5596
▁fort	-5597
▁የሚሰማ	-5598
▁የተሰጠ	-5599
▁የሚሰጠው	-5600
ስቱን	-5601
ያውቅ	-5602
▁ሰራዊት	-5603
▁indic	-5604
▁መሆናቸውን	-5605
▁thoughts	-5606
▁44	-5607
▁ዮና	-5608
ቀርበው	-5609
▁mic	-5610
▁በተለ	-5611
▁wood	-5612
▁ሥልጣን	-5613
▁ይላል፦	-5614
▁unless	-5615
ony	-5616
ደሰት	-5617
▁hig	-5618
▁mir	-5619
owers	-5620
▁acqu	-5621
▁ሚሊዮን	-5622
▁avail	-5623
▁doubt	-5624
▁አለባቸው	-5625
▁various	-5626
▁assigned	-5627
▁committed	-5628
ቡት	-5629
ስበው	-5630
▁አድና	-5631
ilead	-5632
▁ስድስት	-5633
▁ይሆናሉ	-5634
▁parad	-5635
▁table	-5636
▁ለመርዳት	-5637
▁messenger	-5638
ጋይ	-5639
ጋጠ	-5640
▁ቢኖር	-5641
ኝ፤	-5642
ጦች	-5643
▁ኒ	-5644
▁ማጥ	-5645
▁ጎን	-5646
ቀረበው	-5647
▁abund	-5648
▁imitate	-5649
▁completely	-5650
▁43	-5651
▁አሰ	-5652
▁ፈል	-5653
▁ger	-5654
▁sar	-5655
ውነተኛው	-5656
▁rebe	-5657
▁ትውልድ	-5658
▁እንደመ	-5659
▁ድንኳን	-5660
▁የዘላለም	-5661
▁member	-5662
▁በመጨረሻም	-5663
ምድ	-5664
ጉት	-5665
ously	-5666
▁ready	-5667
▁sleep	-5668
▁በሕይወት	-5669
▁የአሜሪካ	-5670
▁choose	-5671
▁tongue	-5672
ውሮ	-5673
ግም	-5674
ፍር	-5675
ቅርብ	-5676
▁42	-5677
▁mus	-5678
▁አገኘ	-5679
▁forces	-5680
ትስ	-5681
ቀጥል	-5682
gram	-5683
▁ባለመ	-5684
▁ብለዋል	-5685
▁influ	-5686
▁james	-5687
▁shame	-5688
▁spend	-5689
▁despite	-5690
▁circumst	-5691
▁happened	-5692
ሣሪያ	-5693
ወትር	-5694
imes	-5695
ህንነት	-5696
▁bed	-5697
▁cat	-5698
▁dom	-5699
▁rose	-5700
▁error	-5701
▁least	-5702
▁memor	-5703
▁occur	-5704
▁visit	-5705
▁reading	-5706
▁generation	-5707
▁undeserved	-5708
ረቡ	-5709
ውሞ	-5710
ጾታ	-5711
▁pop	-5712
▁ሁለቱ	-5713
▁ሁሉን	-5714
ትምህርት	-5715
▁exch	-5716
▁መረዳት	-5717
▁ይችላል።	-5718
▁walking	-5719
▁የመጀመሪያው	-5720
ጣቱ	-5721
ጽኦ	-5722
ላሉ።	-5723
ዋቸው	-5724
▁ጥናት	-5725
▁gree	-5726
▁line	-5727
▁vers	-5728
▁value	-5729
▁የእምነት	-5730
▁sacred	-5731
ሁድ	-5732
ይዝ	-5733
ዳዳ	-5734
ጠየ	-5735
▁ለስ	-5736
▁ማዳ	-5737
ዎቻቸው	-5738
▁ሸለቆ	-5739
▁በሁለ	-5740
▁ሁለተኛ	-5741
▁ባለቤት	-5742
▁wealth	-5743
▁creation	-5744
▁descendants	-5745
ብዛ	-5746
ገሪቱ	-5747
▁አዝ	-5748
aiah	-5749
ቶቻችሁ	-5750
▁fun	-5751
▁በስራ	-5752
▁ተቀመ	-5753
▁አልቻ	-5754
article	-5755
ልስጤማውያን	-5756
▁ለማገልገል	-5757
▁እንዳልሆነ	-5758
ሊያ	-5759
ዲሱ	-5760
let	-5761
▁መሸ	-5762
▁ይሄዳ	-5763
▁ለማየት	-5764
▁አስመል	-5765
▁assist	-5766
▁paradise	-5767
ቢው	-5768
ጻሚ	-5769
ሴቶች	-5770
ዚዳን	-5771
▁pos	-5772
▁ያገኘ	-5773
▁የትዳር	-5774
▁manas	-5775
▁አማልክት	-5776
▁democratic	-5777
ርማ	-5778
ነሣ	-5779
▁የክ	-5780
▁ከንቱ	-5781
▁docu	-5782
▁fest	-5783
▁አንጻር	-5784
▁challeng	-5785
▁manasseh	-5786
▁proclaim	-5787
ለብ	-5788
ንብ	-5789
ከን	-5790
ውንና	-5791
▁nat	-5792
▁የጎደ	-5793
▁soldiers	-5794
ያዣ	-5795
ጸያ	-5796
ነሳሳ	-5797
▁hid	-5798
▁የሠራ	-5799
▁ፍጥረ	-5800
itive	-5801
▁reach	-5802
▁የሆኑትን	-5803
▁ይሆናል፡፡	-5804
▁neighbor	-5805
ቦቹ	-5806
▁ሹ	-5807
▁በሬ	-5808
ላችሁ፤	-5809
▁env	-5810
▁hom	-5811
▁ወንዝ	-5812
▁ከሰማይ	-5813
▁tried	-5814
▁million	-5815
ቃን	-5816
ያየት	-5817
ught	-5818
▁ጌታዬ	-5819
▁የተመሰ	-5820
▁distr	-5821
▁thousands	-5822
ሮስ	-5823
ድጓድ	-5824
▁መሬ	-5825
▁ስጋ	-5826
▁ቅን	-5827
ውያንን	-5828
▁aud	-5829
▁guid	-5830
▁rejo	-5831
▁አንድን	-5832
▁finan	-5833
▁union	-5834
▁sexual	-5835
አዊ	-5836
▁ብታ	-5837
cies	-5838
ergy	-5839
▁አንቺ	-5840
▁ካህኑ	-5841
▁በምድረ	-5842
▁local	-5843
▁shout	-5844
▁አይችልም	-5845
ደኛው	-5846
▁በአባ	-5847
▁ኮሚቴ	-5848
▁ዐዋቂ	-5849
▁saved	-5850
▁strugg	-5851
ስል	-5852
ዮችን	-5853
ጸያፊ	-5854
▁ተሳ	-5855
ሆናቸው	-5856
▁ብርቱ	-5857
▁የግል	-5858
▁ግንብ	-5859
▁birr	-5860
▁fool	-5861
▁የሚኖር	-5862
▁ዘፍጥረት	-5863
▁elijah	-5864
▁education	-5865
ንቅ	-5866
ወል	-5867
ንድሞ	-5868
▁ቀና	-5869
▁wal	-5870
▁ሃላፊ	-5871
▁የተሳ	-5872
▁girl	-5873
▁corre	-5874
▁shows	-5875
ability	-5876
▁suffer	-5877
▁project	-5878
▁jonathan	-5879
ዩም	-5880
ዶም	-5881
bed	-5882
ለኛው	-5883
ግስት	-5884
▁ቅቡ	-5885
ጠቃላይ	-5886
▁pot	-5887
▁joab	-5888
▁ሁለቱም	-5889
▁በሚያስ	-5890
▁occas	-5891
▁አስተዋጽኦ	-5892
ቁን	-5893
ዳድ	-5894
▁ብን	-5895
▁ከው	-5896
ቷቸዋል	-5897
▁fif	-5898
▁እህል	-5899
▁ግሩም	-5900
ouble	-5901
▁ኤልያስ	-5902
▁የይሖዋን	-5903
▁freedom	-5904
▁stor	-5905
▁ንግግር	-5906
▁letter	-5907
▁powerful	-5908
▁presented	-5909
ቶቹን	-5910
▁በሞ	-5911
ተኝነት	-5912
▁መለስ	-5913
▁ክፍያ	-5914
▁displ	-5915
▁elder	-5916
▁administr	-5917
ራሽ	-5918
chn	-5919
▁ምህ	-5920
▁ሳያ	-5921
▁ከፈ	-5922
oper	-5923
▁fat	-5924
▁post	-5925
▁ናቸው፤	-5926
▁የሚገኝ	-5927
action	-5928
▁oblig	-5929
▁pursu	-5930
▁የሚገኘውን	-5931
ሪኮ	-5932
▁ጄ	-5933
ply	-5934
▁ጤና	-5935
ሰበሰቡ	-5936
ነታቸው	-5937
▁አመስ	-5938
▁አደረግ	-5939
▁accepted	-5940
▁bringing	-5941
▁revelation	-5942
ኔን	-5943
ምራል	-5944
ወስድ	-5945
▁ሙሴም	-5946
▁ሰዓት	-5947
▁በመቶ	-5948
▁ይሰጠ	-5949
▁ጥበቃ	-5950
▁ድርጅቶች	-5951
ረከ	-5952
ኦል	-5953
ለታል	-5954
▁በጭ	-5955
▁ጆሮ	-5956
port	-5957
work	-5958
ጆቻቸው	-5959
▁ሃብት	-5960
▁የገዛ	-5961
soever	-5962
▁contract	-5963
ንቃቄ	-5964
▁ታዛ	-5965
▁ስለማ	-5966
▁charge	-5967
▁appoint	-5968
▁ለእግዚአብሔር	-5969
በራ	-5970
ተዋል።	-5971
▁ምድረ	-5972
▁ከጌታ	-5973
▁fill	-5974
▁እድገት	-5975
▁daily	-5976
▁company	-5977
▁program	-5978
▁therein	-5979
ሶን	-5980
ees	-5981
አንተ	-5982
▁big	-5983
▁ለሚያ	-5984
▁መርከ	-5985
thren	-5986
▁write	-5987
▁እነዚያም	-5988
▁advice	-5989
▁brethren	-5990
ነብ	-5991
ጥታ	-5992
ስተር	-5993
ቀበሉ	-5994
▁ከራ	-5995
▁ded	-5996
▁ታቦት	-5997
▁names	-5998
▁patient	-5999
▁slaught	-6000
▁followers	-6001
ቃወ	-6002
▁3,	-6003
▁የዩ	-6004
▁ፈሪ	-6005
▁የተባለ	-6006
▁amount	-6007
▁leader	-6008
▁sevent	-6009
▁በመካከላቸው	-6010
ክም	-6011
ጋው	-6012
ጥሩ	-6013
▁በለ	-6014
▁ወሰን	-6015
▁የብር	-6016
ament	-6017
ናገረውን	-6018
▁zion	-6019
▁journey	-6020
▁shepherd	-6021
▁qualities	-6022
▁opportunity	-6023
▁circumstances	-6024
ዳት	-6025
ዳዊት	-6026
▁ir	-6027
iful	-6028
▁fig	-6029
▁ተሞክ	-6030
▁ጀመሩ	-6031
▁cher	-6032
▁conce	-6033
▁imper	-6034
▁worker	-6035
▁territory	-6036
▁provisions	-6037
ሸት	-6038
ደደ	-6039
▁ቆር	-6040
▁mot	-6041
▁ስለመ	-6042
▁ያቀር	-6043
▁wait	-6044
▁plant	-6045
▁changed	-6046
ቤን	-6047
aba	-6048
ራዊቱ	-6049
ባትም	-6050
▁ምሕ	-6051
▁አና	-6052
▁ጨር	-6053
alty	-6054
ላችሁም	-6055
▁መልኩ	-6056
▁ጽሁፍ	-6057
▁cust	-6058
▁rans	-6059
▁ወደዚያ	-6060
▁techn	-6061
▁duties	-6062
▁vision	-6063
ስክ	-6064
▁ጮ	-6065
por	-6066
ካሄድ	-6067
▁በክ	-6068
▁ትዕ	-6069
▁የይ	-6070
ival	-6071
ocks	-6072
▁vir	-6073
▁በየአ	-6074
▁ተከት	-6075
▁ተዋጊ	-6076
▁ያመጣ	-6077
ators	-6078
▁tele	-6079
▁የታወቀ	-6080
thians	-6081
▁prior	-6082
▁ወታደሮች	-6083
▁የፖለቲካ	-6084
▁prayers	-6085
▁several	-6086
▁eritrean	-6087
▁blessings	-6088
▁profession	-6089
ረስ	-6090
ስሐ	-6091
ኃኒ	-6092
▁የድን	-6093
▁miss	-6094
▁sake	-6095
▁ለሰዎች	-6096
▁ይህንን	-6097
▁አስጸያፊ	-6098
▁gilead	-6099
▁replied	-6100
ሟል	-6101
ጣሉ	-6102
ዋል፤	-6103
▁ምልክ	-6104
▁ከቤተ	-6105
oured	-6106
▁flee	-6107
▁በሰይፍ	-6108
▁የለም።	-6109
▁ዳዊትን	-6110
ስጠንቀቂያ	-6111
ክርስቲያን	-6112
▁private	-6113
▁produce	-6114
▁expressed	-6115
▁compassion	-6116
ዛው	-6117
የም	-6118
▁ቸ	-6119
ቃለሁ	-6120
▁ve	-6121
▁eye	-6122
▁ነገሥ	-6123
▁ወራት	-6124
alted	-6125
▁cred	-6126
▁የሚሰጥ	-6127
itation	-6128
▁messengers	-6129
▁corinthians	-6130
▁ሎ	-6131
▁ርዝ	-6132
▁ነጋ	-6133
▁አቃ	-6134
▁fem	-6135
▁ለአባ	-6136
▁ከአን	-6137
aches	-6138
▁መጠበቅ	-6139
▁ዝምድና	-6140
▁approach	-6141
wh	-6142
▁ባቢ	-6143
▁ኋላ	-6144
▁የያ	-6145
ማቸውን	-6146
ባቸውም	-6147
▁net	-6148
▁ኃላፊ	-6149
▁መግቢያ	-6150
▁የቀረበ	-6151
▁ያሳያል	-6152
▁broken	-6153
▁ransom	-6154
▁covered	-6155
▁የእስራኤልን	-6156
▁attitude	-6157
▁particip	-6158
ች፤	-6159
’”	-6160
▁ጩ	-6161
መላለ	-6162
ናይት	-6163
▁ተግ	-6164
▁በገዛ	-6165
▁ተቀብ	-6166
▁እናት	-6167
▁ከምድር	-6168
▁የሰጠው	-6169
ሞክራሲያዊ	-6170
▁merci	-6171
▁remained	-6172
▁committee	-6173
▁registered	-6174
▁responsibility	-6175
ሎጂ	-6176
ዊው	-6177
ጠፉ	-6178
ban	-6179
▁ኤፌ	-6180
ናቸውም	-6181
ራሪ	-6182
ከፈ	-6183
ጠባ	-6184
▁ስና	-6185
sequ	-6186
▁bit	-6187
▁mom	-6188
▁መሣሪያ	-6189
▁ብሄራት	-6190
▁የሌለው	-6191
▁lands	-6192
▁bodies	-6193
▁መመሪያዎች	-6194
▁በአጠቃላይ	-6195
▁አስተሳሰብ	-6196
▁promises	-6197
▁ጃ	-6198
ili	-6199
ማመን	-6200
ዲያብ	-6201
▁መበ	-6202
▁ንገ	-6203
▁ሂደት	-6204
▁በመጣ	-6205
▁በደረ	-6206
▁አባቱ	-6207
▁የወጣ	-6208
▁prove	-6209
▁takes	-6210
▁ቤተሰቦች	-6211
▁agency	-6212
▁cooper	-6213
▁itself	-6214
ቻለ	-6215
ፋል	-6216
ፋቸው	-6217
▁የና	-6218
alom	-6219
iles	-6220
▁ዘሮች	-6221
rison	-6222
ዲያብሎስ	-6223
▁በቀላሉ	-6224
▁ባህርይ	-6225
▁እንጨት	-6226
▁either	-6227
▁desires	-6228
▁involved	-6229
ፖር	-6230
▁ልና	-6231
▁ማታ	-6232
▁ዝቅ	-6233
እናንተ	-6234
▁inj	-6235
▁አለን	-6236
utions	-6237
▁aware	-6238
▁ይረዳናል	-6239
▁በክርስቶስ	-6240
ዘገ	-6241
ጓዝ	-6242
ለያየ	-6243
ጠየቅ	-6244
▁ከት	-6245
▁non	-6246
▁ጽፏል	-6247
▁ለአንድ	-6248
▁tempt	-6249
▁employment	-6250
ም፣	-6251
ሙርት	-6252
▁አወ	-6253
more	-6254
▁ban	-6255
▁ወዲያ	-6256
▁amaz	-6257
▁ears	-6258
▁fast	-6259
▁ተሞክሮ	-6260
iously	-6261
▁medical	-6262
ss	-6263
ጭት	-6264
ሄደው	-6265
▁መጡ	-6266
pped	-6267
ናይትድ	-6268
▁mur	-6269
▁ብሎም	-6270
▁ባለፈው	-6271
▁refer	-6272
▁white	-6273
▁የገንዘብ	-6274
▁remove	-6275
▁creator	-6276
መሩ	-6277
መስል	-6278
▁ቀኝ	-6279
▁አሞ	-6280
aria	-6281
▁ምሥራ	-6282
▁በመቀ	-6283
▁pure	-6284
▁ababa	-6285
▁earli	-6286
▁መዛሙርት	-6287
▁በእውነት	-6288
▁transgress	-6289
ግለጽ	-6290
ፈጽሙ	-6291
▁cit	-6292
under	-6293
▁ባህርያት	-6294
▁rejoic	-6295
▁አድርጋችሁ	-6296
▁physical	-6297
መደ	-6298
ምረ	-6299
ጓዙ	-6300
ላለፍ	-6301
ካቸው	-6302
ተኞችን	-6303
ይማኖት	-6304
▁ለፊት	-6305
▁weep	-6306
▁detail	-6307
19	-6308
ህትና	-6309
ራል።	-6310
ፍሪካ	-6311
with	-6312
▁ምንኛ	-6313
▁የወርቅ	-6314
▁copper	-6315
▁inspired	-6316
▁ጉዞ	-6317
ከላከያ	-6318
▁win	-6319
▁calam	-6320
▁grave	-6321
▁somet	-6322
▁ቆሮንቶስ	-6323
▁ጢሞቴዎስ	-6324
▁inside	-6325
▁regular	-6326
ችሉም	-6327
▁ቋሚ	-6328
like	-6329
▁ምንጭ	-6330
▁በማሳ	-6331
▁rock	-6332
▁የቀድሞ	-6333
▁include	-6334
ህር	-6335
ችሁም	-6336
fied	-6337
ረጋገጥ	-6338
▁ach	-6339
▁cam	-6340
▁በሞት	-6341
▁የወሰ	-6342
▁ይወጣ	-6343
▁ለመኖር	-6344
▁አስመልክቶ	-6345
▁እንደሚሆን	-6346
▁እውነተኛው	-6347
ቀሰ	-6348
ጀን	-6349
▁ፎ	-6350
ሃል።	-6351
ፍሬም	-6352
▁46	-6353
▁ስቴ	-6354
▁ከኤ	-6355
▁ቀጥሎ	-6356
▁ይህች	-6357
asing	-6358
▁መኳንን	-6359
▁ሰውየው	-6360
▁danger	-6361
▁አስተዳደር	-6362
ነቶች	-6363
ያለሁ	-6364
▁tro	-6365
▁ማቅረብ	-6366
▁በታላቅ	-6367
▁ነበረ።	-6368
▁የእሱን	-6369
▁የሚያስተ	-6370
▁persec	-6371
▁merciful	-6372
ፈነ	-6373
ድርግ	-6374
▁የቴ	-6375
▁buy	-6376
▁መሄድ	-6377
▁ገነት	-6378
▁dust	-6379
▁raise	-6380
▁ማገልገል	-6381
▁allowed	-6382
ለናል	-6383
▁ይሸ	-6384
▁በሆኑ	-6385
▁የእሱ	-6386
▁init	-6387
▁ተናገረ	-6388
▁ዝርዝር	-6389
▁ልጆቻችሁ	-6390
▁ማረጋገጫ	-6391
▁እርግጠኛ	-6392
▁condem	-6393
▁measures	-6394
ረበ	-6395
ጉን	-6396
▁ጊ	-6397
ንጉሱ	-6398
▁ለበ	-6399
▁በኃ	-6400
▁19.	-6401
▁ብቃት	-6402
▁ነቢዩ	-6403
▁ዕለት	-6404
▁የውጭ	-6405
▁የጤና	-6406
▁ምስራች	-6407
▁simply	-6408
▁arrived	-6409
▁efforts	-6410
▁appeared	-6411
▁exchange	-6412
▁services	-6413
▁confidence	-6414
20	-6415
ርሻ	-6416
ክላ	-6417
ada	-6418
▁ወሬ	-6419
ዘጋጀት	-6420
▁የሚተ	-6421
▁ግዛት	-6422
▁hall	-6423
▁skin	-6424
▁ተጠያቂ	-6425
▁hence	-6426
▁image	-6427
▁slaves	-6428
▁ስብሰባዎች	-6429
▁belongs	-6430
▁guidance	-6431
▁violence	-6432
ሾች	-6433
ቀጣ	-6434
ድርጅ	-6435
ዶችን	-6436
▁emb	-6437
▁በየት	-6438
▁bene	-6439
▁ሃይማኖት	-6440
ርሳ	-6441
ቋል	-6442
ቱት	-6443
▁ሆኗ	-6444
▁የሸ	-6445
▁195	-6446
▁rob	-6447
▁እጁን	-6448
▁hung	-6449
▁seas	-6450
▁zeal	-6451
▁መጠቀም	-6452
▁ሲናገር	-6453
▁newsp	-6454
▁oppos	-6455
▁spake	-6456
▁መላእክት	-6457
▁በእምነት	-6458
▁የሚችሉት	-6459
▁practice	-6460
ግኘ	-6461
ቢዎች	-6462
ጊዜው	-6463
▁ወጪ	-6464
ዋርያት	-6465
▁pen	-6466
▁tax	-6467
▁አቅራ	-6468
▁corn	-6469
▁hate	-6470
▁role	-6471
▁perish	-6472
▁rescue	-6473
▁አደርጋለሁ	-6474
ካር	-6475
▁ሬ	-6476
ogy	-6477
ሶስት	-6478
ገኘት	-6479
▁assy	-6480
▁host	-6481
▁እንደዚሁ	-6482
▁pieces	-6483
▁entrance	-6484
ger	-6485
ምረው	-6486
ተናል	-6487
ከተሉ	-6488
▁ማኅ	-6489
▁ስነ	-6490
▁amb	-6491
▁neb	-6492
▁መስፈ	-6493
▁ተፈታ	-6494
▁አይን	-6495
▁በሁሉም	-6496
▁areas	-6497
▁እስካሁን	-6498
theless	-6499
▁appeal	-6500
▁እግዚአብሔርን	-6501
▁nevertheless	-6502
go	-6503
ላቂ	-6504
የውን	-6505
▁የፋ	-6506
▁ይነ	-6507
ሮቻቸው	-6508
▁civ	-6509
▁tur	-6510
▁ብዛት	-6511
▁ንጹሕ	-6512
▁የላቀ	-6513
▁ጭምር	-6514
ፈልገውን	-6515
▁fled	-6516
▁ትንሳኤ	-6517
▁የሚያሰ	-6518
▁የደረሰ	-6519
urance	-6520
▁judges	-6521
▁absalom	-6522
▁greatly	-6523
የል	-6524
ጠጣ	-6525
ጀመረ	-6526
▁ዕው	-6527
▁ለመቀ	-6528
▁መልካ	-6529
▁አውሮ	-6530
owing	-6531
▁በአላህ	-6532
▁አሜሪካ	-6533
zekiah	-6534
▁የሚቃጠል	-6535
▁changes	-6536
▁exalted	-6537
▁computer	-6538
▁hezekiah	-6539
ባው	-6540
ዘረ	-6541
int	-6542
ium	-6543
ደጋጋሚ	-6544
▁ren	-6545
▁ልማድ	-6546
▁ተሰብ	-6547
▁መሠዊያ	-6548
▁የከተማ	-6549
▁አድርገህ	-6550
▁threat	-6551
▁available	-6552
eb	-6553
ex	-6554
ረጠ	-6555
ርብ	-6556
በሉ	-6557
ዮስ	-6558
▁ran	-6559
▁ቃሉን	-6560
verse	-6561
▁russ	-6562
▁ያደረግ	-6563
▁recom	-6564
▁trade	-6565
▁commit	-6566
▁እላችኋለሁ	-6567
▁accompl	-6568
ውጣ	-6569
ከበር	-6570
▁ሰፊ	-6571
▁ደጋ	-6572
▁unf	-6573
▁በእን	-6574
▁rebu	-6575
▁depend	-6576
▁social	-6577
▁ይኖርበታል	-6578
▁beloved	-6579
▁writing	-6580
ዲዮ	-6581
ድማ	-6582
ann	-6583
ችሁት	-6584
▁ቀይ	-6585
▁አረ	-6586
▁ይተ	-6587
cent	-6588
መለከታ	-6589
▁ris	-6590
▁ገብቶ	-6591
▁ህዝቡን	-6592
▁ወደዚህ	-6593
▁shown	-6594
▁ባሪያዎች	-6595
▁issues	-6596
▁proced	-6597
▁respon	-6598
▁መንግስታት	-6599
▁beautiful	-6600
▁conscience	-6601
ኘው	-6602
ግን	-6603
ላንድ	-6604
▁ለይ	-6605
roll	-6606
በረታታ	-6607
▁ይገኙ	-6608
▁አለችው	-6609
▁disob	-6610
▁ያስፈልጋ	-6611
▁tribes	-6612
▁የመንግስት	-6613
▁earlier	-6614
▁pointed	-6615
▁seventh	-6616
▁articles	-6617
▁property	-6618
▁response	-6619
▁provision	-6620
ብቅ	-6621
ገዙ	-6622
osp	-6623
▁ከዋ	-6624
ረዳቸው	-6625
ችኋል።	-6626
▁አስር	-6627
▁oath	-6628
▁eight	-6629
▁action	-6630
▁africa	-6631
▁declare	-6632
▁display	-6633
▁prophecy	-6634
▁standards	-6635
ሳሉ	-6636
ሳፍ	-6637
ቢያው	-6638
ኳቸው	-6639
▁2,	-6640
▁ጥና	-6641
▁ፀሐ	-6642
ናገሩት	-6643
▁ric	-6644
▁clos	-6645
▁እህቶች	-6646
▁በመጠቀም	-6647
▁trying	-6648
▁activity	-6649
▁forgiveness	-6650
ኮር	-6651
ያይ	-6652
ሠሩት	-6653
▁ሜዳ	-6654
itic	-6655
mony	-6656
▁መንጋ	-6657
▁safe	-6658
▁ዓመታት	-6659
▁የአንድ	-6660
▁prost	-6661
▁forget	-6662
▁romans	-6663
▁mission	-6664
▁removed	-6665
▁examples	-6666
ምሯ	-6667
ሳካ	-6668
ቅን	-6669
ድል	-6670
▁ተጋ	-6671
▁ኢሳ	-6672
airs	-6673
ters	-6674
▁ቀድሞ	-6675
▁ይልቁ	-6676
usion	-6677
▁incl	-6678
▁ያህዌም	-6679
▁ያዕቆብ	-6680
▁accur	-6681
▁ምስራቹን	-6682
▁እውነትን	-6683
▁events	-6684
▁explain	-6685
▁american	-6686
ሁ።	-6687
ደሩ	-6688
ንባሌ	-6689
▁ለባ	-6690
▁በዝ	-6691
cted	-6692
▁cra	-6693
▁pas	-6694
▁ሕዝቡን	-6695
▁ተቃውሞ	-6696
▁civil	-6697
▁አድርገን	-6698
▁imprison	-6699
ጧቸው	-6700
▁ትላ	-6701
▁ኪዳ	-6702
lech	-6703
ታችሁን	-6704
▁lin	-6705
▁rac	-6706
▁በረከ	-6707
▁ባልና	-6708
bered	-6709
▁orom	-6710
▁sell	-6711
▁መዝሙሮች	-6712
▁principle	-6713
▁congregations	-6714
አዛ	-6715
▁ክል	-6716
ናቸውን	-6717
▁swe	-6718
▁deliver	-6719
▁illustr	-6720
▁concerned	-6721
▁wonderful	-6722
sp	-6723
ቶቼ	-6724
ንክ	-6725
▁sn	-6726
▁ከሞ	-6727
owed	-6728
▁vol	-6729
▁ሰፈሩ	-6730
▁ግብዣ	-6731
▁grew	-6732
▁hair	-6733
▁sides	-6734
▁single	-6735
▁practical	-6736
▁university	-6737
▁spiritually	-6738
ልካ	-6739
ጥፍ	-6740
ሕዛብ	-6741
ቋረጥ	-6742
ኮኖሚ	-6743
▁ምት	-6744
▁ክስ	-6745
▁eur	-6746
▁ተስማ	-6747
▁ዝንባሌ	-6748
▁powers	-6749
▁ability	-6750
▁delight	-6751
▁prevent	-6752
▁prophes	-6753
▁progress	-6754
▁conditions	-6755
ሊን	-6756
ላክ	-6757
▁ቆሞ	-6758
▁ዙፋ	-6759
▁በመታ	-6760
▁አረጋ	-6761
▁ከልብ	-6762
inary	-6763
▁ይገልጻ	-6764
▁seems	-6765
▁terri	-6766
▁conclud	-6767
▁discern	-6768
የአ	-6769
gal	-6770
ጀምር	-6771
▁ለብዙ	-6772
▁trad	-6773
▁እነሆ፥	-6774
▁የሚባል	-6775
ification	-6776
ሰማው	-6777
ከላከል	-6778
▁rid	-6779
▁ሜትር	-6780
▁ካሉት	-6781
▁ጋዜጣ	-6782
▁bank	-6783
▁added	-6784
▁ammon	-6785
▁በተለያዩ	-6786
▁approval	-6787
▁corruption	-6788
▁በን	-6789
▁ተወካ	-6790
▁አስከ	-6791
▁የኾነ	-6792
▁easy	-6793
▁fish	-6794
▁መስራት	-6795
▁መስፈር	-6796
▁ጥበበኛ	-6797
▁citiz	-6798
▁በነበረበት	-6799
▁garment	-6800
▁increase	-6801
ነትና	-6802
▁ልቡ	-6803
▁ክብ	-6804
▁ይሻ	-6805
▁ጻድ	-6806
ፈጠረው	-6807
▁aid	-6808
▁ነፋስ	-6809
▁እሰጣ	-6810
▁የአን	-6811
▁ጠላት	-6812
▁አካላት	-6813
▁ጊዜያት	-6814
▁helps	-6815
▁አይደሉም	-6816
▁buried	-6817
▁endure	-6818
▁proved	-6819
▁source	-6820
▁sources	-6821
▁straight	-6822
de	-6823
ገራ	-6824
ጋራ	-6825
፤በ	-6826
ኖረን	-6827
▁መቆ	-6828
ሰባቸው	-6829
▁pan	-6830
▁ተቆጣ	-6831
▁ከሰው	-6832
▁ይኖሩ	-6833
▁team	-6834
▁አይደለም።	-6835
▁granted	-6836
▁pharise	-6837
▁putting	-6838
▁reasons	-6839
▁experienced	-6840
ለስ	-6841
ቁር	-6842
ኖራ	-6843
▁55	-6844
▁inn	-6845
▁ህሊና	-6846
▁ሕይወ	-6847
▁ተሰጥ	-6848
▁repro	-6849
▁ወታደራዊ	-6850
▁natural	-6851
▁discipline	-6852
ራጭ	-6853
ላልቅ	-6854
ነገረ	-6855
ንያም	-6856
ኞቹን	-6857
erve	-6858
▁ባለቤ	-6859
▁ተገል	-6860
▁ያገኛ	-6861
▁ጥቅስ	-6862
cript	-6863
▁bond	-6864
▁አፍሪካ	-6865
▁ይሰጣል	-6866
▁ጭንቀት	-6867
▁cultiv	-6868
▁preach	-6869
▁በማንኛውም	-6870
▁languages	-6871
▁regulations	-6872
ጭር	-6873
▁ጤ	-6874
ረዳው	-6875
▁ሙያ	-6876
▁ቤቴ	-6877
▁ኛው	-6878
▁ልጅ፣	-6879
▁እንጅ	-6880
▁ነበረው	-6881
▁ዘወትር	-6882
▁etern	-6883
▁stret	-6884
▁አብዛኛውን	-6885
▁harvest	-6886
▁showing	-6887
▁likewise	-6888
▁sometimes	-6889
ጠኝ	-6890
ታወቅ	-6891
ክበር	-6892
▁9,	-6893
▁ለሃ	-6894
▁ያሰ	-6895
ፈጸመው	-6896
▁ham	-6897
▁ይጠይ	-6898
▁meat	-6899
▁prime	-6900
▁ራሳችንን	-6901
▁አላቸው፦	-6902
▁ከእነርሱ	-6903
▁branch	-6904
▁የሚያስከት	-6905
▁disease	-6906
▁calamity	-6907
zz	-6908
አለሁ	-6909
▁ሰን	-6910
▁በኮ	-6911
vant	-6912
▁አዘው	-6913
ester	-6914
▁fund	-6915
▁cloud	-6916
▁final	-6917
▁terror	-6918
▁parties	-6919
▁generations	-6920
df	-6921
ርኩ	-6922
ሲካ	-6923
rer	-6924
ump	-6925
ሴሎም	-6926
▁ጥፋ	-6927
▁ተማሪ	-6928
▁patri	-6929
▁ተነስተው	-6930
▁scient	-6931
▁becoming	-6932
▁instance	-6933
ነሰ	-6934
ከማ	-6935
ሳይም	-6936
▁ለዘ	-6937
▁ገላ	-6938
ፌዴራል	-6939
▁በአይ	-6940
▁ተሰም	-6941
▁አስብ	-6942
ንጸባረቅ	-6943
▁date	-6944
▁መርዳት	-6945
▁አለብን	-6946
▁ከሆነው	-6947
▁parag	-6948
▁europe	-6949
▁higher	-6950
▁middle	-6951
▁getting	-6952
▁financial	-6953
▁association	-6954
ወሩ	-6955
ፊቱ	-6956
arm	-6957
you	-6958
▁ስእ	-6959
▁ዳቦ	-6960
▁ለመግ	-6961
▁lamp	-6962
▁ምርመራ	-6963
▁አዘውት	-6964
▁rulers	-6965
▁expected	-6966
ነኛ	-6967
ene	-6968
ብንም	-6969
ያንስ	-6970
▁ጨረ	-6971
በረሰብ	-6972
▁tow	-6973
▁ሕያው	-6974
▁መያዝ	-6975
▁በአስ	-6976
icient	-6977
overed	-6978
▁touch	-6979
▁ተፈታታኝ	-6980
▁ታማኝነት	-6981
▁አምላካችን	-6982
▁released	-6983
▁condition	-6984
ረቱ	-6985
ርፍ	-6986
ልበት	-6987
ንዶች	-6988
▁ኢን	-6989
▁ቅጥር	-6990
▁ተለይ	-6991
▁ወላጆ	-6992
after	-6993
▁ልጆችን	-6994
▁ማድረጋ	-6995
▁steps	-6996
▁unity	-6997
▁የቤተሰብ	-6998
▁convin	-6999
▁arrange	-7000
▁consequ	-7001
▁imagine	-7002
▁happiness	-7003
ዘዘው	-7004
ዱሳን	-7005
▁በይ	-7006
▁ከቀ	-7007
▁ጩኸ	-7008
know	-7009
▁ማሰብ	-7010
▁በሥራ	-7011
▁ንብረ	-7012
▁ahab	-7013
▁እንጀራ	-7014
▁የእህል	-7015
▁የኤርትራ	-7016
▁strike	-7017
▁እንደነበረ	-7018
▁paragraph	-7019
▁sanctuary	-7020
▁scripture	-7021
ካፈ	-7022
ፊው	-7023
▁ሽል	-7024
▁መላው	-7025
▁ሥርዓ	-7026
▁ረጅም	-7027
▁cert	-7028
▁ሲደርስ	-7029
▁አምላኬ	-7030
▁አእምሮ	-7031
▁ያለንን	-7032
▁donke	-7033
▁instit	-7034
▁በተደጋጋሚ	-7035
▁warning	-7036
▁economic	-7037
ክሩ	-7038
ዞት	-7039
iet	-7040
ልና።	-7041
ጃቸው	-7042
▁በሳ	-7043
▁በትን	-7044
▁የስብ	-7045
▁ጉዳዩ	-7046
orses	-7047
▁hill	-7048
▁lies	-7049
▁ይቅርታ	-7050
▁aside	-7051
▁gates	-7052
▁በትክክል	-7053
▁እናንተን	-7054
▁calling	-7055
▁friendship	-7056
ልካም	-7057
በልጡ	-7058
▁ወድ	-7059
▁እግር	-7060
▁ጨለማ	-7061
▁cost	-7062
▁repe	-7063
▁ስለሚያ	-7064
▁ነጻነት	-7065
iction	-7066
▁saith	-7067
▁ተማሪዎች	-7068
ሲያ	-7069
ሽም	-7070
gar	-7071
ims	-7072
▁በቆ	-7073
▁በዮ	-7074
▁ዘጸ	-7075
▁የሂ	-7076
▁መሃል	-7077
aving	-7078
▁ቁጥጥር	-7079
▁በመሄድ	-7080
▁loves	-7081
▁brings	-7082
▁sitting	-7083
▁humility	-7084
▁otherwise	-7085
ርሷ	-7086
▁ሂድ	-7087
▁ቻይ	-7088
▁በፊቱ	-7089
atter	-7090
ublic	-7091
ጠቀምበት	-7092
▁sudden	-7093
ኖቹ	-7094
ደዱ	-7095
ግሩ	-7096
zer	-7097
ለች፤	-7098
ታል፤	-7099
ገልጽ	-7100
ዓላዊው	-7101
▁አገዛ	-7102
▁እናው	-7103
▁ያስች	-7104
▁curs	-7105
▁wish	-7106
▁ከተማዋ	-7107
▁greek	-7108
▁delive	-7109
▁eating	-7110
▁famine	-7111
▁actions	-7112
▁answers	-7113
▁ማስጠንቀቂያ	-7114
▁እንዲያደርጉ	-7115
ih	-7116
ሄር	-7117
መጥ	-7118
aly	-7119
eon	-7120
ዎቹም	-7121
▁መኮ	-7122
▁ተል	-7123
▁ከዘ	-7124
▁ይሞ	-7125
▁ሰሜን	-7126
▁ይኸው	-7127
▁ሳይቆይ	-7128
▁1,000	-7129
▁flood	-7130
▁sarah	-7131
▁አድናቆት	-7132
▁ምክንያታዊ	-7133
▁በታማኝነት	-7134
▁translation	-7135
ኩ።	-7136
han	-7137
▁5,	-7138
▁ኤሊ	-7139
ለዋል።	-7140
ረጋገጠ	-7141
▁tar	-7142
▁አብረ	-7143
▁ተደርጎ	-7144
▁ይሖዋ።	-7145
▁parts	-7146
▁troops	-7147
▁wickedness	-7148
ርቲ	-7149
ቿን	-7150
mer	-7151
ሞችን	-7152
▁ሚዛ	-7153
▁ውይ	-7154
▁ጴጥ	-7155
prdf	-7156
▁emp	-7157
▁ተገን	-7158
▁ገንዘ	-7159
▁grie	-7160
▁ስቴትስ	-7161
▁እንዳሉ	-7162
▁ጠቅላይ	-7163
▁chron	-7164
▁gifts	-7165
▁roman	-7166
▁ቋንቋዎች	-7167
▁አይሆንም	-7168
▁የተሰጠው	-7169
▁ይሆናል፤	-7170
▁manage	-7171
▁secretary	-7172
ሻሻ	-7173
une	-7174
ረጅም	-7175
▁ከደ	-7176
▁ይባ	-7177
▁saf	-7178
▁ዝናብ	-7179
▁esau	-7180
▁mere	-7181
▁guide	-7182
▁እንዲኖር	-7183
▁arrest	-7184
▁detest	-7185
▁garden	-7186
▁horses	-7187
▁sinned	-7188
▁walked	-7189
▁becomes	-7190
▁pillars	-7191
▁የሚያደርገው	-7192
▁tribulation	-7193
ሰስ	-7194
▁ፌ	-7195
ama	-7196
ሐንስ	-7197
ሰባት	-7198
ገኛል	-7199
▁ወዮ	-7200
nect	-7201
▁eve	-7202
▁wel	-7203
▁እኛን	-7204
▁doct	-7205
▁ባልንጀ	-7206
▁የተቀመ	-7207
▁curse	-7208
▁animal	-7209
▁commer	-7210
▁groups	-7211
▁helping	-7212
▁organizations	-7213
?"	-7214
ላስ	-7215
ማስ	-7216
ሳቢ	-7217
ኔት	-7218
ውራ	-7219
ils	-7220
መልከ	-7221
ፈጠር	-7222
▁hy	-7223
▁በሉ	-7224
▁በቃ	-7225
▁በካ	-7226
▁dry	-7227
▁ሄደ።	-7228
▁ለመፍ	-7229
▁ያስደ	-7230
izing	-7231
▁page	-7232
▁ያለበት	-7233
▁ባለሥልጣ	-7234
▁እንዲያስ	-7235
▁ደህንነት	-7236
▁burning	-7237
▁memorial	-7238
ለዳ	-7239
jud	-7240
ody	-7241
ሻገር	-7242
▁ለካ	-7243
▁ሳን	-7244
▁bud	-7245
▁tit	-7246
▁መፍት	-7247
▁የስነ	-7248
sover	-7249
▁goal	-7250
▁ሪፖርት	-7251
▁ሰማያት	-7252
▁ስልጠና	-7253
▁ስራዎች	-7254
▁በግብፅ	-7255
▁ተቃዋሚ	-7256
▁ወንጀል	-7257
▁greet	-7258
▁ፕሬዚዳን	-7259
▁crimin	-7260
▁settle	-7261
▁testim	-7262
▁እንግዲያው	-7263
▁greatest	-7264
▁passover	-7265
▁illustration	-7266
,"	-7267
ሌን	-7268
ኩም	-7269
ጠሉ	-7270
ጥም	-7271
ዮቹን	-7272
▁ነግ	-7273
▁ጥሪ	-7274
bers	-7275
ሳውያን	-7276
▁cup	-7277
▁በሚል	-7278
▁ደመና	-7279
▁ment	-7280
▁pour	-7281
▁በፍጹም	-7282
▁ብዙውን	-7283
▁የተገለ	-7284
▁trouble	-7285
▁fulfilled	-7286
▁interests	-7287
▁ሾ	-7288
ራውያን	-7289
▁ሲመጣ	-7290
▁እያሉ	-7291
▁ደቡብ	-7292
▁ይልቁንም	-7293
▁ዲያብሎስ	-7294
▁republic	-7295
ዕድ	-7296
eem	-7297
ode	-7298
ገባት	-7299
ጠብቁ	-7300
በታል።	-7301
▁hop	-7302
▁ባሕር	-7303
▁ካልተ	-7304
▁ዓላማ	-7305
▁የተረ	-7306
▁susp	-7307
▁ለእርሱ	-7308
▁ተቀመጠ	-7309
▁ነበሩ፤	-7310
▁የአንተ	-7311
▁lying	-7312
▁perman	-7313
▁leading	-7314
▁pioneer	-7315
▁quality	-7316
▁required	-7317
▁transfer	-7318
ቧል	-7319
ያያዙ	-7320
▁ሄዶ	-7321
▁ካሉ	-7322
▁ልመና	-7323
▁አጠቃ	-7324
▁ማበረታ	-7325
▁ሳምንት	-7326
▁ታደርጋ	-7327
icated	-7328
▁judic	-7329
▁ለእነርሱ	-7330
▁የሚገባው	-7331
▁create	-7332
▁escape	-7333
▁female	-7334
▁attempt	-7335
▁complain	-7336
▁occasion	-7337
▁commandment	-7338
ሷል	-7339
ነቴ	-7340
ጓጓ	-7341
ሶችን	-7342
▁በሥ	-7343
ገነዘብ	-7344
▁በፈቃ	-7345
▁አወጣ	-7346
eless	-7347
ially	-7348
▁ምስጋና	-7349
▁ባቢሎን	-7350
▁polic	-7351
▁round	-7352
▁thank	-7353
▁ነገሥታት	-7354
▁street	-7355
▁submit	-7356
▁demonstr	-7357
ክና	-7358
ዞች	-7359
▁ተባ	-7360
▁ይጥ	-7361
ከተሉት	-7362
ደኝነት	-7363
▁ምህረት	-7364
▁በደንብ	-7365
▁ተመለሱ	-7366
▁እናገኛ	-7367
▁ከአላህ	-7368
▁desol	-7369
▁safety	-7370
▁wrongdo	-7371
ተረ	-7372
ወዝ	-7373
▁hab	-7374
▁አመጸ	-7375
▁አየር	-7376
▁ኤልሳ	-7377
▁እኔና	-7378
uries	-7379
▁baal	-7380
▁vill	-7381
▁አዘጋጅ	-7382
▁ግለሰብ	-7383
▁እንስሳት	-7384
▁cattle	-7385
▁patience	-7386
▁privilege	-7387
ሃብ	-7388
ነጻ	-7389
ዳሴ	-7390
ፍቶ	-7391
መልስ	-7392
ገቡት	-7393
aken	-7394
ራቸውም	-7395
▁ሰጠው	-7396
▁ነቢይ	-7397
▁ከላይ	-7398
▁ይወድ	-7399
prise	-7400
▁older	-7401
ልበ	-7402
ማሉ	-7403
ሜሌ	-7404
ሮታ	-7405
ክልል	-7406
▁መጸ	-7407
▁ቡድ	-7408
ታቸውም	-7409
ወስደው	-7410
▁ሰቅል	-7411
▁የወደ	-7412
utive	-7413
▁አንዱን	-7414
▁ኤርትራ	-7415
▁ያመለክ	-7416
▁elish	-7417
▁በምድሪቱ	-7418
▁የሚሆነው	-7419
ression	-7420
▁yester	-7421
▁declared	-7422
ሪት	-7423
ብቻ	-7424
ዱር	-7425
ዴግ	-7426
ገዳ	-7427
ደነገ	-7428
▁መኾ	-7429
ጠናከር	-7430
▁ምርት	-7431
▁ስቃይ	-7432
▁ገልጸ	-7433
▁ይመጣል	-7434
▁smoke	-7435
▁belief	-7436
▁humble	-7437
▁district	-7438
በዛ	-7439
ጦሽ	-7440
ፋዊ	-7441
ina	-7442
tal	-7443
ልሃል	-7444
ተኛውን	-7445
▁ign	-7446
▁የገለ	-7447
▁teen	-7448
▁ጉዳዩን	-7449
▁basis	-7450
▁asking	-7451
▁caught	-7452
▁yesterday	-7453
ውው	-7454
ያሉ	-7455
ባልን	-7456
▁ከግ	-7457
▁eth	-7458
▁edom	-7459
▁forb	-7460
▁weap	-7461
▁ተቀምጦ	-7462
▁ከግብፅ	-7463
▁የወንድ	-7464
▁ግንባር	-7465
▁ነገስታት	-7466
▁የሚቀርብ	-7467
▁rebell	-7468
▁benefits	-7469
▁community	-7470
▁eventually	-7471
▁regulation	-7472
ረክ	-7473
ፕሮ	-7474
ህፈት	-7475
ልያድ	-7476
ቆጣጠ	-7477
▁6,	-7478
▁ዩኒ	-7479
▁cru	-7480
▁woe	-7481
▁ቤተሰ	-7482
▁lion	-7483
▁ሠራዊት	-7484
▁በፊትህ	-7485
▁ዋስትና	-7486
▁meles	-7487
▁የህይወት	-7488
▁content	-7489
▁keeping	-7490
▁pharisees	-7491
ስህ	-7492
▁ቪ	-7493
ቷቸው	-7494
▁አጠፋ	-7495
▁ኾነው	-7496
▁ጽሁፎ	-7497
ilate	-7498
otten	-7499
▁heav	-7500
▁plag	-7501
▁ጉድጓድ	-7502
▁በፍጥነት	-7503
▁interp	-7504
▁defense	-7505
▁recently	-7506
ane	-7507
▁48	-7508
▁መናፍ	-7509
▁ተቋም	-7510
▁አያው	-7511
▁ጠርቶ	-7512
ብራውያን	-7513
▁ባላቸው	-7514
▁bones	-7515
▁inner	-7516
attered	-7517
▁island	-7518
▁portion	-7519
▁refused	-7520
▁delivered	-7521
ማሽ	-7522
ጾች	-7523
▁ሃብ	-7524
▁ሳት	-7525
▁በጨ	-7526
▁እኩ	-7527
▁መምህ	-7528
▁በሰላም	-7529
▁በውስጧ	-7530
▁የዚህን	-7531
idents	-7532
▁wrath	-7533
▁ልጆቻቸው	-7534
▁የሚገልጽ	-7535
▁ትችላላችሁ	-7536
ጉር	-7537
ell	-7538
lem	-7539
ዷቸው	-7540
▁ምሁ	-7541
▁ተሻ	-7542
▁አቆ	-7543
ቦቻቸው	-7544
ነገረው	-7545
▁mel	-7546
▁በሙሴ	-7547
▁ዕድሜ	-7548
▁የእኔ	-7549
ushed	-7550
ቶቻቸውን	-7551
▁pict	-7552
▁ራስህን	-7553
▁ሲያጋጥ	-7554
▁ወዳጅነት	-7555
▁secure	-7556
▁convers	-7557
▁actually	-7558
▁satisfied	-7559
ቅረ	-7560
ፋሉ	-7561
▁ቱ	-7562
▁65	-7563
▁ንቁ	-7564
▁አጣ	-7565
aked	-7566
ስተዋል	-7567
▁bro	-7568
▁መኪና	-7569
▁ሚስቱ	-7570
▁brit	-7571
▁iron	-7572
▁መከተል	-7573
▁ለመጠበቅ	-7574
▁ለማቅረብ	-7575
▁bitter	-7576
▁አምላካችሁ	-7577
▁connect	-7578
▁samaria	-7579
ለበ	-7580
እድ	-7581
▁4,	-7582
▁ልባ	-7583
▁የቦ	-7584
reme	-7585
▁ተገለ	-7586
light	-7587
ology	-7588
▁eccl	-7589
▁በሚገኝ	-7590
▁ተጠንቀ	-7591
▁occup	-7592
▁store	-7593
▁causes	-7594
▁couple	-7595
▁ምናልባትም	-7596
▁አካባቢዎች	-7597
▁የመንግሥት	-7598
▁distrib	-7599
▁constitution	-7600
son	-7601
ላህም	-7602
ላል፤	-7603
▁cy	-7604
▁የሥ	-7605
pass	-7606
▁tig	-7607
▁ላለው	-7608
▁cele	-7609
▁በዚያው	-7610
▁faces	-7611
▁የተዘጋጀ	-7612
▁placed	-7613
▁examine	-7614
▁newspaper	-7615
ቴና	-7616
ጎና	-7617
ken	-7618
oph	-7619
ሰቡን	-7620
በራዊ	-7621
ብሊክ	-7622
ፈቅድ	-7623
▁gad	-7624
▁ቀርቶ	-7625
▁ነኝ።	-7626
▁የሚነ	-7627
▁sand	-7628
▁አቤቱ፥	-7629
▁ፍርሃት	-7630
ension	-7631
▁correct	-7632
▁afterward	-7633
▁creatures	-7634
▁registration	-7635
na	-7636
▁ጅ	-7637
ራል፤	-7638
ወደው	-7639
ግነት	-7640
▁ደዌ	-7641
▁gib	-7642
▁አስታ	-7643
▁እስር	-7644
▁ዓይን	-7645
▁የምስ	-7646
▁የጾታ	-7647
▁ያጠፋ	-7648
▁goes	-7649
ential	-7650
▁birds	-7651
▁hours	-7652
▁liter	-7653
▁በስብሰባ	-7654
▁የማድረግ	-7655
▁ያደርጋሉ	-7656
▁modern	-7657
▁እንዳላቸው	-7658
▁foolish	-7659
▁exercise	-7660
▁finished	-7661
▁research	-7662
▁individual	-7663
ዱም	-7664
oil	-7665
ስማት	-7666
ሻሻል	-7667
ቀርባ	-7668
▁7,	-7669
▁ከገ	-7670
▁ይከ	-7671
ገባቸው	-7672
▁መስተ	-7673
▁ምሽት	-7674
▁ብሄር	-7675
▁ከቤት	-7676
▁ይገኛ	-7677
▁ጊዜ፥	-7678
inate	-7679
▁ነቢያት	-7680
▁የሚሰጡ	-7681
▁media	-7682
▁tenth	-7683
▁ይናገራሉ	-7684
▁እንደሆንኩ	-7685
▁certific	-7686
▁practices	-7687
ትል	-7688
ጠቁ	-7689
ፕሬ	-7690
oun	-7691
ቃለን	-7692
ኃጢአት	-7693
▁squ	-7694
▁መጽሄ	-7695
▁earn	-7696
▁feed	-7697
▁አመስጋ	-7698
▁faced	-7699
▁አይገባም	-7700
▁እናገኛለን	-7701
▁invited	-7702
ስፈ	-7703
ሻው	-7704
ቲን	-7705
ሏል።	-7706
▁kid	-7707
▁grad	-7708
▁የተሰራ	-7709
▁የአየር	-7710
▁idols	-7711
▁pride	-7712
▁አገልጋዮቹ	-7713
ሁፍ	-7714
ር፣	-7715
asp	-7716
iam	-7717
nty	-7718
ሸነፍ	-7719
ታለሁ	-7720
▁አለ፦	-7721
ክርስቲያ	-7722
▁1914	-7723
▁አገዛዝ	-7724
▁cases	-7725
▁ኃላፊነት	-7726
▁carrying	-7727
▁relatives	-7728
▁protection	-7729
ምባ	-7730
ዓዛ	-7731
ዟል	-7732
ፀም	-7733
ታውቁ	-7734
ክልት	-7735
olog	-7736
ላቸው።	-7737
ስተኞች	-7738
▁አትፍ	-7739
▁ዛፎች	-7740
▁hell	-7741
▁ልዩነት	-7742
▁ካህናቱ	-7743
▁ውጤታማ	-7744
▁ዘመናት	-7745
▁linen	-7746
▁medic	-7747
▁access	-7748
▁exceed	-7749
▁livest	-7750
▁affairs	-7751
▁assyria	-7752
▁protest	-7753
▁stopped	-7754
▁የሚከተለውን	-7755
▁clothing	-7756
▁festival	-7757
▁pleasure	-7758
▁egyptians	-7759
▁የእግዚአብሔርን	-7760
▁personality	-7761
ሳስ	-7762
ማችን	-7763
ኖችን	-7764
ኩትን	-7765
▁ዘዳ	-7766
reen	-7767
▁ሁሉ፥	-7768
▁ምርጥ	-7769
▁ስልጣ	-7770
▁ተገኝ	-7771
▁ክፋት	-7772
▁hosp	-7773
▁hurt	-7774
▁loss	-7775
▁መቃብር	-7776
▁በተመሳ	-7777
▁ካልሆነ	-7778
▁የተመረ	-7779
▁የዳዊት	-7780
▁manif	-7781
▁riches	-7782
▁worked	-7783
▁carefully	-7784
▁appreciation	-7785
ዓም	-7786
ጡ፤	-7787
aff	-7788
እንደ	-7789
ያችሁ	-7790
ፈለጉ	-7791
▁ለነ	-7792
▁መገ	-7793
▁ችላ	-7794
▁ይለ	-7795
▁ጸሎ	-7796
▁asa	-7797
▁ልጃችሁ	-7798
▁ሕዝቡም	-7799
▁ወረቀት	-7800
▁ሁለተኛው	-7801
▁በተመሳሳይም	-7802
▁rejected	-7803
▁responsible	-7804
▁encouragement	-7805
ባን	-7806
ዛቤ	-7807
ጥል	-7808
▁ጦ	-7809
ራትን	-7810
ጠይቅ	-7811
▁ደመ	-7812
▁ፈራ	-7813
▁ፈጥ	-7814
▁rad	-7815
▁syn	-7816
▁መዋጮ	-7817
▁በትእ	-7818
▁እኩል	-7819
▁ወይን	-7820
▁arab	-7821
▁late	-7822
▁note	-7823
▁በምሳሌ	-7824
▁ተመልክ	-7825
▁እንዲሰ	-7826
▁ካህኑም	-7827
▁እንደዚህ	-7828
▁የህክምና	-7829
▁acknow	-7830
▁select	-7831
▁capital	-7832
▁evident	-7833
ኛል።	-7834
እምሮ	-7835
ጨምር	-7836
▁ቀስ	-7837
ስታወስ	-7838
▁gaz	-7839
▁ste	-7840
▁መኖሩ	-7841
▁አወድ	-7842
iring	-7843
usted	-7844
▁nine	-7845
▁ታላላቅ	-7846
▁ምናልባት	-7847
▁ያስፈልገ	-7848
onement	-7849
▁choice	-7850
▁fallen	-7851
▁galile	-7852
▁moment	-7853
▁poured	-7854
▁feeling	-7855
▁struggle	-7856
▁successful	-7857
▁representatives	-7858
ሳቱ	-7859
ምፒው	-7860
ሰበስ	-7861
ናገኝ	-7862
ያዋን	-7863
▁ናቡ	-7864
▁ግቢ	-7865
iety	-7866
ijah	-7867
▁hot	-7868
▁ish	-7869
▁ህያው	-7870
▁ምትክ	-7871
▁አምባ	-7872
▁አብሮ	-7873
▁አፍቃ	-7874
▁ከመን	-7875
▁የቤት	-7876
aphat	-7877
cised	-7878
holic	-7879
ounce	-7880
▁paid	-7881
▁መጠየቅ	-7882
▁ማርያም	-7883
▁እስከሚ	-7884
▁ወዳለው	-7885
▁የራሱን	-7886
▁ይሁን።	-7887
▁ሉአላዊው	-7888
▁ምድሪቱን	-7889
▁ሠራተኞች	-7890
▁በሰማያት	-7891
▁german	-7892
▁እንዳለበት	-7893
▁pressure	-7894
▁livestock	-7895
▁convention	-7896
ቆር	-7897
ነን	-7898
ጸና	-7899
ቀዋል	-7900
ተኞቹ	-7901
ታዘዝ	-7902
ደገፍ	-7903
ጀንሲ	-7904
▁ለጥ	-7905
▁ማረ	-7906
▁ነጭ	-7907
▁197	-7908
▁ves	-7909
▁በሰባ	-7910
▁ወሰደ	-7911
▁ወንጌ	-7912
where	-7913
▁loud	-7914
▁redu	-7915
▁room	-7916
▁tast	-7917
▁wash	-7918
▁ሁኔታው	-7919
▁በድጋሚ	-7920
▁ንጉሡም	-7921
▁ወደኋላ	-7922
▁የሚሰጠ	-7923
▁cried	-7924
imelech	-7925
▁render	-7926
▁በአንድነት	-7927
▁realize	-7928
፣በ	-7929
ክልሉ	-7930
▁ሆና	-7931
▁ሰጪ	-7932
▁ሲኾኑ	-7933
▁አሮን	-7934
▁የበግ	-7935
▁ግምት	-7936
▁በውስጡ	-7937
▁አመልክ	-7938
▁ያደርገ	-7939
▁ይሖዋም	-7940
▁horse	-7941
▁አይችሉም	-7942
▁አይኖርም	-7943
▁ፍጥረታት	-7944
▁verses	-7945
▁ባለስልጣን	-7946
standing	-7947
▁whereas	-7948
▁imperfect	-7949
ls	-7950
ሩ።	-7951
▁na	-7952
▁እጆ	-7953
▁ኪሎ	-7954
▁የሻ	-7955
▁ጨዋ	-7956
▁wee	-7957
▁ሆነን	-7958
▁ምስል	-7959
▁ዛሬም	-7960
▁eplf	-7961
▁ለሁሉም	-7962
▁መውሰድ	-7963
▁class	-7964
▁deput	-7965
▁eprdf	-7966
▁ባለስልጣናት	-7967
▁learning	-7968
ልቃ	-7969
...	-7970
ባኖስ	-7971
ችበት	-7972
▁tas	-7973
▁በጦር	-7974
▁text	-7975
▁ምድሪቱ	-7976
▁ተራሮች	-7977
▁የህዝብ	-7978
▁ፖለቲካ	-7979
▁doesn	-7980
▁innoc	-7981
▁spent	-7982
▁prejud	-7983
▁simple	-7984
▁african	-7985
▁manifest	-7986
▁relevant	-7987
▁remaining	-7988
ይታ	-7989
፣የ	-7990
ዳዳሪ	-7991
▁ol	-7992
▁ለቅ	-7993
▁ለፍ	-7994
▁የዕ	-7995
▁ጋሻ	-7996
▁key	-7997
oboam	-7998
▁መሪነት	-7999
▁አይችል	-8000
▁የፍርድ	-8001
▁throw	-8002
▁warri	-8003
▁ቅርንጫፍ	-8004
▁ፕሮግራም	-8005
▁defend	-8006
▁disapp	-8007
▁vessel	-8008
▁upright	-8009
▁jeroboam	-8010
▁pastures	-8011
▁specific	-8012
▁regularly	-8013
▁worshippers	-8014
▁administrative	-8015
ሳድ	-8016
ቢት	-8017
ካሪ	-8018
ርመን	-8019
▁ህጻ	-8020
▁ማወ	-8021
▁በቤ	-8022
▁ንድ	-8023
heth	-8024
▁rod	-8025
▁ላይም	-8026
▁ስትል	-8027
▁በነጻ	-8028
ignty	-8029
▁በግዞት	-8030
▁መመልከት	-8031
▁burned	-8032
▁integr	-8033
▁divided	-8034
▁release	-8035
▁atonement	-8036
▁sovereignty	-8037
▁ለቤተ	-8038
▁ዘላቂ	-8039
▁ጨርሶ	-8040
ነታቸውን	-8041
እስራኤል	-8042
▁hide	-8043
▁shew	-8044
▁ነበረች	-8045
▁ያልሆኑ	-8046
▁flour	-8047
▁stake	-8048
▁በተለይም	-8049
ቃል።	-8050
ኃኒት	-8051
ዳንድ	-8052
▁ከሳ	-8053
ኖርበት	-8054
▁ህጋዊ	-8055
▁ሲሆኑ	-8056
▁ቤቱን	-8057
▁የተከ	-8058
enced	-8059
ighty	-8060
▁books	-8061
▁thess	-8062
▁አነስተኛ	-8063
▁boundary	-8064
▁effective	-8065
▁ethiopians	-8066
ጠራው	-8067
ጣችሁ	-8068
▁ከዮ	-8069
aded	-8070
ቀጥለው	-8071
▁ሌሎቹ	-8072
▁ሐሳብ	-8073
▁ሰውም	-8074
▁ተሰማ	-8075
▁አላት	-8076
▁ዝግጁ	-8077
▁ያለፈ	-8078
▁beat	-8079
▁reub	-8080
▁መቋቋም	-8081
▁መፈጸም	-8082
▁በፍቅር	-8083
▁ተመልሶ	-8084
▁አስተማ	-8085
▁ጠላቶች	-8086
ateful	-8087
▁acted	-8088
▁drive	-8089
▁stayed	-8090
▁address	-8091
▁reports	-8092
ga	-8093
ረሳ	-8094
ቀሱ	-8095
ጽናና	-8096
▁በዕ	-8097
▁አቁ	-8098
▁የቻ	-8099
▁የኢዮ	-8100
▁shek	-8101
▁የሚመጣ	-8102
▁skill	-8103
▁widow	-8104
▁ባልንጀራ	-8105
▁አደረገ።	-8106
▁almost	-8107
▁formed	-8108
▁prayed	-8109
▁conducted	-8110
▁influence	-8111
ጋን	-8112
ጨመረ	-8113
▁ሊቃ	-8114
▁ምዕ	-8115
▁ተርፎ	-8116
▁ጥላቻ	-8117
▁ፈጣሪ	-8118
▁ruth	-8119
▁ለመሆኑ	-8120
▁ተገንዝ	-8121
angers	-8122
▁አባታችን	-8123
▁እርሱም።	-8124
▁የሚደርስ	-8125
▁ensure	-8126
▁reuben	-8127
▁emotion	-8128
▁results	-8129
▁succeed	-8130
▁recorded	-8131
▁executive	-8132
▁challenges	-8133
ለጥ	-8134
ቀቀ	-8135
ናቱ	-8136
▁ራሴ	-8137
▁በሲ	-8138
▁በና	-8139
▁ትና	-8140
▁ከቆ	-8141
▁ጽዋ	-8142
▁ማሰላ	-8143
▁በመሠ	-8144
osing	-8145
▁ማንበብ	-8146
▁በከተማ	-8147
▁እንዳን	-8148
▁train	-8149
▁wound	-8150
▁fourth	-8151
▁nature	-8152
▁payment	-8153
ለዋ	-8154
ሙም	-8155
ጹት	-8156
ታለች	-8157
▁ከቅ	-8158
▁ጠር	-8159
enty	-8160
vert	-8161
▁suf	-8162
▁በሕግ	-8163
▁ማህበር	-8164
▁አስቀድ	-8165
▁conqu	-8166
▁astray	-8167
▁failed	-8168
▁joined	-8169
▁የሚከተሉት	-8170
▁anxiety	-8171
▁besides	-8172
▁chariots	-8173
ze	-8174
በተ	-8175
ቶት	-8176
ዘዋ	-8177
ፋር	-8178
set	-8179
▁ስደ	-8180
▁በሩ	-8181
▁የረ	-8182
▁በእጁ	-8183
▁የምድ	-8184
▁መሰዊያ	-8185
▁ሰላማዊ	-8186
▁በሰዎች	-8187
▁ሚኒስቴር	-8188
▁accused	-8189
▁hebrews	-8190
▁affection	-8191
▁described	-8192
▁patriarch	-8193
ሽኑ	-8194
ንጻ	-8195
ዶን	-8196
nal	-8197
ለትን	-8198
▁በሴ	-8199
▁በሶ	-8200
▁ክህ	-8201
▁ግል	-8202
▁196	-8203
▁የቀረ	-8204
oting	-8205
▁glad	-8206
▁lamb	-8207
▁meal	-8208
▁ቢያንስ	-8209
▁አስወግ	-8210
▁breat	-8211
▁prose	-8212
▁ተመልካች	-8213
▁severe	-8214
▁አስተያየት	-8215
▁earthly	-8216
▁remains	-8217
▁waiting	-8218
▁የአገልግሎት	-8219
▁realized	-8220
ሂድ	-8221
ምኑ	-8222
ራፍ	-8223
ጽምና	-8224
▁በዩ	-8225
▁ፈለ	-8226
arer	-8227
road	-8228
ካሄደው	-8229
ያቸውን	-8230
ደርጉት	-8231
▁194	-8232
▁በዚሁ	-8233
▁ወረደ	-8234
▁ፋንታ	-8235
▁lest	-8236
▁ቅድሚያ	-8237
▁በጥንት	-8238
▁ያደርግ	-8239
▁divor	-8240
▁ruler	-8241
▁አቅራቢያ	-8242
▁desert	-8243
▁jewish	-8244
▁insight	-8245
▁commercial	-8246
▁implementation	-8247
que	-8248
▁መሃ	-8249
በርካታ	-8250
▁ነጋዴ	-8251
lying	-8252
▁gosp	-8253
▁ምስራቅ	-8254
▁በሁለት	-8255
▁የአካል	-8256
▁ደግነት	-8257
▁የሚያጋጥ	-8258
olution	-8259
▁breast	-8260
▁jehosh	-8261
▁tempor	-8262
▁እንድንችል	-8263
▁millions	-8264
▁courtyard	-8265
ማው	-8266
der	-8267
ለወጥ	-8268
ነሳው	-8269
ሆናችሁ	-8270
▁14,	-8271
▁ken	-8272
▁አሰራ	-8273
▁ወደተ	-8274
arily	-8275
▁የተሞላ	-8276
▁ጀመር።	-8277
▁calls	-8278
▁chose	-8279
▁limit	-8280
▁troub	-8281
▁ለመቀበል	-8282
▁ማሳሰቢያ	-8283
orality	-8284
▁cherub	-8285
▁demand	-8286
▁worthy	-8287
▁journal	-8288
▁philipp	-8289
▁forgiving	-8290
▁testimony	-8291
▁detestable	-8292
▁leadership	-8293
ክኖ	-8294
ኮል	-8295
har	-8296
ሮቹን	-8297
ቃችን	-8298
ናል፤	-8299
▁ሁኑ	-8300
▁ሂዱ	-8301
▁ተካ	-8302
▁ውጪ	-8303
wide	-8304
▁በከፍ	-8305
▁በውጭ	-8306
▁በፊቴ	-8307
▁ትኩረ	-8308
▁የምር	-8309
enses	-8310
▁dism	-8311
▁lose	-8312
▁warm	-8313
ግዚአብሄር	-8314
▁ለመፈጸም	-8315
▁የሚፈልጉ	-8316
▁ደስተኞች	-8317
▁handed	-8318
▁virgin	-8319
▁persons	-8320
▁certificate	-8321
ቲክ	-8322
ኸኝ	-8323
የሁ	-8324
መዋል	-8325
lies	-8326
ነታችን	-8327
▁በግለ	-8328
▁የሌለ	-8329
▁lips	-8330
▁በእርሷ	-8331
▁ተብለው	-8332
▁ተናገር	-8333
▁አዳዲስ	-8334
▁የሚመራ	-8335
▁የትኞቹ	-8336
▁black	-8337
▁meant	-8338
▁ማበረታቻ	-8339
▁በጥንቃቄ	-8340
▁የሚኖረው	-8341
▁guilty	-8342
▁explains	-8343
▁positive	-8344
ታሉ	-8345
ላትን	-8346
ንተር	-8347
▁መሆ	-8348
ሰብሰብ	-8349
▁exh	-8350
▁ሁሉና	-8351
▁ተአም	-8352
▁ፊልጵ	-8353
▁mass	-8354
▁mate	-8355
▁በደቡብ	-8356
ifying	-8357
▁እናደርጋ	-8358
▁የሠራዊት	-8359
▁ይገልጻል	-8360
▁judgments	-8361
ቁ።	-8362
ይሬ	-8363
rog	-8364
ሳየው	-8365
ስትራ	-8366
▁ሌሊ	-8367
▁በሦ	-8368
ixed	-8369
oyal	-8370
ruct	-8371
▁ሰረገ	-8372
▁ሰውን	-8373
▁እቅድ	-8374
stood	-8375
▁seal	-8376
▁ቅቡአን	-8377
▁ብርታት	-8378
▁አደገኛ	-8379
▁ephes	-8380
▁pater	-8381
▁የሚገኙት	-8382
▁advers	-8383
▁closer	-8384
▁guided	-8385
▁employee	-8386
▁produced	-8387
▁provides	-8388
▁transport	-8389
▁wherefore	-8390
▁እስራኤላውያንን	-8391
▁management	-8392
ዛዝ	-8393
ይስ	-8394
hod	-8395
pan	-8396
thy	-8397
ውም።	-8398
▁ምሥ	-8399
▁ስኬ	-8400
ድርጅቱ	-8401
ፈርዖን	-8402
▁ሰማያ	-8403
▁በየእ	-8404
▁አዋቂ	-8405
▁የውሃ	-8406
▁ይታወ	-8407
▁sust	-8408
▁ለመሄድ	-8409
▁በሁለቱ	-8410
▁overl	-8411
▁የተባለች	-8412
▁ይመስላል	-8413
▁elisha	-8414
▁መስፈርቶች	-8415
▁contain	-8416
▁paternal	-8417
▁jehoshaphat	-8418
▁investigation	-8419
ሆች	-8420
ሪን	-8421
ድስ	-8422
ፃሚ	-8423
arc	-8424
hol	-8425
ህናት	-8426
ሆንክ	-8427
ሰዋል	-8428
ኋቸው	-8429
▁--	-8430
▁ረዳ	-8431
▁በሸ	-8432
ross	-8433
ሃለሁ።	-8434
ዋውያን	-8435
▁won	-8436
▁ንስሃ	-8437
▁ከየት	-8438
▁ግብር	-8439
▁ጠያቂ	-8440
▁wond	-8441
▁አድራጊ	-8442
▁adult	-8443
▁swear	-8444
▁እንዲችሉ	-8445
▁confir	-8446
▁divine	-8447
▁indust	-8448
▁lifted	-8449
▁resist	-8450
▁ወንድሞችና	-8451
▁central	-8452
▁pleased	-8453
▁captured	-8454
▁suddenly	-8455
ረጡ	-8456
ሰነ	-8457
ዝራ	-8458
ገላ	-8459
▁ሣ	-8460
aid	-8461
ቢነት	-8462
ባንያ	-8463
ግባቡ	-8464
▁ሚና	-8465
▁ቂጣ	-8466
ተኛውም	-8467
▁mos	-8468
▁አመጽ	-8469
▁debt	-8470
▁ተመለሰ	-8471
iation	-8472
▁በራሳቸው	-8473
▁deputy	-8474
▁fought	-8475
▁harmony	-8476
▁በመካከላችሁ	-8477
▁የተናገረውን	-8478
▁obedient	-8479
ሊላ	-8480
አይ	-8481
ott	-8482
ሰውን	-8483
ንከባ	-8484
▁47	-8485
▁ከን	-8486
▁ይደ	-8487
mber	-8488
▁zer	-8489
▁መማር	-8490
▁በቤት	-8491
▁ውጊያ	-8492
▁ፍትህ	-8493
▁ruin	-8494
▁ብላችሁ	-8495
▁የሚጠይ	-8496
▁የተገኘ	-8497
ograph	-8498
▁awake	-8499
▁ሊያደርግ	-8500
▁በእነርሱ	-8501
▁ተወካዮች	-8502
▁የሌላቸው	-8503
▁የሰራዊት	-8504
▁celebr	-8505
▁couldn	-8506
▁market	-8507
▁obtain	-8508
▁ልጆቻቸውን	-8509
▁እስራኤልን	-8510
▁ይሰማቸዋል	-8511
▁accounts	-8512
▁election	-8513
▁organized	-8514
ርሲ	-8515
ቲቱ	-8516
ይዙ	-8517
ላለፈ	-8518
ታዎች	-8519
ጸልይ	-8520
▁ተማ	-8521
aign	-8522
orah	-8523
ላለማዊ	-8524
▁aut	-8525
▁ምግባ	-8526
▁መቀበል	-8527
▁በነበረው	-8528
▁አስታውስ	-8529
▁የጎደለው	-8530
▁ለመጀመሪያ	-8531
▁በላቸው፡፡	-8532
▁whenever	-8533
▁situations	-8534
uf	-8535
ቀሩ	-8536
ለምን	-8537
ያላን	-8538
▁በቦ	-8539
▁ይኑ	-8540
▁hol	-8541
▁ላሉት	-8542
▁ደርሶ	-8543
▁ብልግና	-8544
▁ministers	-8545
▁requirements	-8546
ለዱ	-8547
ታር	-8548
ኩን	-8549
▁ቄ	-8550
▁ኀ	-8551
ንም።	-8552
ወርድ	-8553
▁ቤዛ	-8554
▁ተው	-8555
▁እም	-8556
ades	-8557
ieft	-8558
ሆናችን	-8559
▁mak	-8560
▁ምርኮ	-8561
▁ብርሃ	-8562
▁ዘመና	-8563
▁ዝርያ	-8564
▁የማት	-8565
▁ፖሊስ	-8566
ariah	-8567
▁tend	-8568
▁ሁለቱን	-8569
▁ምሕረት	-8570
▁ተርፎም	-8571
▁አባባል	-8572
▁አፍቃሪ	-8573
▁ጀመርኩ	-8574
▁goats	-8575
▁tears	-8576
▁የተወሰኑ	-8577
▁chieft	-8578
▁ምክንያቶች	-8579
▁ordered	-8580
▁touched	-8581
cell	-8582
ring	-8583
ሳይንስ	-8584
▁ሄደው	-8585
▁ካህን	-8586
▁ይነሳ	-8587
▁ezek	-8588
▁lift	-8589
▁prim	-8590
▁ምርምር	-8591
▁የማምለ	-8592
▁መስፈሪያ	-8593
▁በከፍተኛ	-8594
▁በየእለቱ	-8595
▁ትእዛዛት	-8596
▁የሚያሳዩ	-8597
▁deeply	-8598
▁sought	-8599
▁ማስታወቂያ	-8600
▁lasting	-8601
▁campaign	-8602
▁innocent	-8603
▁teachers	-8604
▁completed	-8605
▁rejoicing	-8606
ንጫ	-8607
ፈተ	-8608
een	-8609
ቃብር	-8610
ታውን	-8611
ዘረጋ	-8612
▁ደካ	-8613
▁ገቢ	-8614
▁ገዳ	-8615
▁ጠራ	-8616
ለን፡፡	-8617
▁በሮች	-8618
▁ታላቁ	-8619
▁ትርጉ	-8620
▁የማን	-8621
▁አቀረበ	-8622
▁ዮሐንስ	-8623
pected	-8624
▁jehoi	-8625
▁ለማጥፋት	-8626
▁በርሳቸው	-8627
▁ከመጽሃፍ	-8628
▁budget	-8629
▁volunt	-8630
▁consult	-8631
▁loyalty	-8632
▁ፍልስጤማውያን	-8633
▁appreciate	-8634
▁scriptural	-8635
ሁ፤	-8636
ላሳ	-8637
እነ	-8638
ያየ	-8639
ጠለ	-8640
ias	-8641
ልስጥ	-8642
ኩበት	-8643
ደውን	-8644
ጌታዬ	-8645
▁ምግ	-8646
▁ከፋ	-8647
ልስጥኤ	-8648
▁ሃዘን	-8649
▁በባሕ	-8650
▁ከፊት	-8651
▁የሚሸ	-8652
▁ምንጮች	-8653
▁ብሔራት	-8654
▁የሚረዱ	-8655
▁የጽድቅ	-8656
▁ሰራተኞች	-8657
▁across	-8658
▁hidden	-8659
▁intell	-8660
▁palest	-8661
▁talking	-8662
▁confident	-8663
▁convinced	-8664
ተም	-8665
ጧል	-8666
urs	-8667
▁የድ	-8668
▁ሥልጣ	-8669
▁ተግሳ	-8670
▁የለው	-8671
ደርገውን	-8672
▁bill	-8673
▁empt	-8674
▁humb	-8675
▁offe	-8676
▁sout	-8677
▁መላእክ	-8678
▁መፍትሄ	-8679
▁ከሁለት	-8680
▁ውይይት	-8681
▁arise	-8682
▁ከነበሩት	-8683
▁publis	-8684
▁verily	-8685
▁improve	-8686
▁suffered	-8687
▁teachings	-8688
▁companions	-8689
▁reasonable	-8690
ሊስ	-8691
ኗኗ	-8692
ውር	-8693
ገም	-8694
pes	-8695
ዝገባ	-8696
ደኞች	-8697
▁ታይ	-8698
▁የጉ	-8699
ንግሊዝ	-8700
▁tob	-8701
▁መደም	-8702
▁አቅም	-8703
▁አዎን	-8704
ፈልጋቸው	-8705
▁amor	-8706
▁እንግዳ	-8707
▁labor	-8708
▁stars	-8709
▁trial	-8710
▁ፕሬዚዳንት	-8711
▁afflict	-8712
ራሄ	-8713
ርባን	-8714
ታዘዙ	-8715
▁የሶ	-8716
agog	-8717
lish	-8718
▁300	-8719
▁ረድቶ	-8720
▁ከብዙ	-8721
▁ወዳድ	-8722
acles	-8723
ulter	-8724
▁ተጠቃሚ	-8725
▁አንበሳ	-8726
avened	-8727
▁wings	-8728
▁10,000	-8729
▁aspect	-8730
▁ባለሙያዎች	-8731
▁baptism	-8732
▁officers	-8733
▁recognize	-8734
ላላ	-8735
ል፣	-8736
ሃል፤	-8737
ሳለሁ	-8738
ብረተ	-8739
ኒስት	-8740
▁በኦ	-8741
▁ዎቹ	-8742
most	-8743
ስታውስ	-8744
▁20.	-8745
▁ሆነ።	-8746
▁መያዣ	-8747
▁ቀርቦ	-8748
▁ትዳር	-8749
acter	-8750
▁1990	-8751
▁shut	-8752
▁price	-8753
▁towns	-8754
▁የሚኖሩት	-8755
▁chiefs	-8756
▁cleans	-8757
▁hebron	-8758
▁seemed	-8759
▁የኢየሱስን	-8760
▁preached	-8761
▁accomplish	-8762
በያ	-8763
ጎዳ	-8764
ብራይ	-8765
▁ማው	-8766
▁ስማ	-8767
▁በሐ	-8768
▁የሽ	-8769
ክኖሎጂ	-8770
▁naz	-8771
▁በቃል	-8772
▁እምላ	-8773
▁የመጡ	-8774
▁ይመለ	-8775
▁ድንቅ	-8776
▁ጸንቶ	-8777
erous	-8778
ስተዳደር	-8779
▁adop	-8780
▁type	-8781
▁በተራራ	-8782
▁ከሁሉም	-8783
▁exile	-8784
▁ሚኒስትር	-8785
▁የሰጠውን	-8786
aration	-8787
▁denied	-8788
▁forbid	-8789
▁እንደሚችሉ	-8790
▁profess	-8791
▁studying	-8792
▁እያንዳንዳቸው	-8793
▁permanent	-8794
▁prejudice	-8795
▁assignment	-8796
▁contribution	-8797
ኮች	-8798
ኬሽን	-8799
iced	-8800
ናል፡፡	-8801
▁11,	-8802
▁መጠበ	-8803
▁ቁርጥ	-8804
▁ተነሥ	-8805
▁የሚሉ	-8806
▁የንጉ	-8807
▁sect	-8808
▁በአዲስ	-8809
▁ባለፉት	-8810
▁ትህትና	-8811
▁ያደረጉ	-8812
▁ያገለግ	-8813
▁goals	-8814
▁plans	-8815
▁simon	-8816
▁story	-8817
▁የተቀደሰ	-8818
▁የዋስትና	-8819
▁ይጨምራል	-8820
▁abroad	-8821
▁beside	-8822
▁younger	-8823
▁grateful	-8824
▁understood	-8825
▁authorities	-8826
ራኒ	-8827
ሰሉ	-8828
ዳሚ	-8829
ጠጥ	-8830
rom	-8831
ሰራው	-8832
ዟቸው	-8833
▁80	-8834
▁ይሉ	-8835
▁ጫፍ	-8836
told	-8837
ችልበት	-8838
▁sav	-8839
▁ሀብት	-8840
▁ሆኗል	-8841
▁ለመም	-8842
▁ልማት	-8843
▁መመር	-8844
▁አይታ	-8845
▁unle	-8846
▁መስማት	-8847
▁ነውና።	-8848
▁አማልክ	-8849
▁ከሆኑት	-8850
▁ከይሁዳ	-8851
▁ይህንኑ	-8852
itable	-8853
▁የእነዚህ	-8854
▁humili	-8855
▁resour	-8856
▁ማድረጋችን	-8857
▁በአገልግሎት	-8858
▁document	-8859
▁fighting	-8860
▁foretold	-8861
▁includes	-8862
▁professional	-8863
1)	-8864
ሳያ	-8865
ቴም	-8866
ክሮ	-8867
ወጠ	-8868
mar	-8869
▁እጃ	-8870
▁ግር	-8871
▁zeb	-8872
▁ቆመው	-8873
▁በተቃ	-8874
▁በገባ	-8875
venge	-8876
▁moon	-8877
▁mour	-8878
▁ትላልቅ	-8879
▁እንኳን	-8880
▁የልማት	-8881
▁ስለነበረ	-8882
ference	-8883
▁betray	-8884
▁firmly	-8885
▁desolate	-8886
▁listening	-8887
▁multitude	-8888
▁immorality	-8889
ህራሄ	-8890
ቀርበ	-8891
ቤቴል	-8892
ጠሩት	-8893
▁ብቸ	-8894
▁ነቅ	-8895
▁የዛ	-8896
▁ጥም	-8897
▁vow	-8898
▁ሚስጥ	-8899
▁ስለም	-8900
▁በመተ	-8901
▁በግል	-8902
▁mich	-8903
▁ብዙዎቹ	-8904
▁አበረታ	-8905
▁አንቀፅ	-8906
▁የአላህ	-8907
▁march	-8908
▁decide	-8909
▁synagog	-8910
▁abandoned	-8911
▁appearance	-8912
ሁም	-8913
ምጣ	-8914
ስለ	-8915
ቡር	-8916
ናዳ	-8917
ጾር	-8918
ቀመጡ	-8919
▁መነ	-8920
▁ቆመ	-8921
▁ወሳ	-8922
iron	-8923
▁nob	-8924
▁አስፋ	-8925
▁አሸና	-8926
▁ገደብ	-8927
ብራይስጥ	-8928
▁ሉአላዊ	-8929
▁እዚያው	-8930
▁የሰላም	-8931
▁exact	-8932
▁ለመረዳት	-8933
▁አውቃለሁ	-8934
▁የተደረገ	-8935
▁engage	-8936
▁honest	-8937
▁injust	-8938
▁ትምህርቶች	-8939
▁እንደሆነና	-8940
▁የምትችለው	-8941
▁ያደረገውን	-8942
▁adulter	-8943
▁english	-8944
▁leaving	-8945
righteous	-8946
gs	-8947
ና፥	-8948
ወሰድ	-8949
▁8,	-8950
▁ተጣ	-8951
mend	-8952
▁ate	-8953
▁ሲሄድ	-8954
▁በውኃ	-8955
▁ንግድ	-8956
ening	-8957
▁sees	-8958
▁ሳኦልም	-8959
▁ስለማይ	-8960
▁በአብዛ	-8961
▁marry	-8962
▁በግለሰብ	-8963
▁prosec	-8964
▁redeem	-8965
▁weapons	-8966
▁recognized	-8967
▁faithfulness	-8968
ልድ	-8969
ቀኝ	-8970
ወሰኑ	-8971
ይጣን	-8972
ገለገ	-8973
ገነባ	-8974
▁ዘው	-8975
▁የየ	-8976
▁የፊ	-8977
oked	-8978
▁500	-8979
▁bri	-8980
▁hyp	-8981
▁ተገነ	-8982
▁አሥር	-8983
▁ደረሰ	-8984
itute	-8985
ነታችንን	-8986
▁ለህዝቡ	-8987
▁መግዛት	-8988
▁ሚስተር	-8989
▁በእድሜ	-8990
▁እንከን	-8991
▁angry	-8992
▁goods	-8993
▁ለመስራት	-8994
▁አብረውት	-8995
▁stream	-8996
▁በተመሳሳይ	-8997
▁አስተማማኝ	-8998
▁secured	-8999
▁medicine	-9000
ሣኤ	-9001
ሟቸው	-9002
ጓቸው	-9003
ፕላን	-9004
▁ኖህ	-9005
▁እኮ	-9006
▁ዞር	-9007
▁የሮ	-9008
▁ይስ	-9009
ላችኋል	-9010
አምላክ	-9011
▁መድረ	-9012
estic	-9013
ምላካችን	-9014
▁leng	-9015
▁norm	-9016
▁soci	-9017
▁tplf	-9018
▁ልባቸው	-9019
▁የመጣው	-9020
▁ድፍረት	-9021
▁horns	-9022
▁sudan	-9023
▁weeks	-9024
▁እነዚያን	-9025
▁ከእርሱም	-9026
▁የተያያዙ	-9027
▁trials	-9028
▁እርግጠኞች	-9029
▁የማምለኪያ	-9030
ications	-9031
▁reigned	-9032
▁approved	-9033
▁worldwide	-9034
mp	-9035
ሙ።	-9036
ርከ	-9037
ቀቁ	-9038
ቀና	-9039
ግዳ	-9040
200	-9041
mun	-9042
ስፋፋ	-9043
በት።	-9044
ቶችም	-9045
▁ባላ	-9046
▁ባየ	-9047
▁የሴ	-9048
icho	-9049
▁በማን	-9050
▁በወን	-9051
▁በፍር	-9052
▁አፈር	-9053
▁እረኛ	-9054
▁የወን	-9055
▁bore	-9056
▁shec	-9057
▁በማሰብ	-9058
▁magaz	-9059
▁slain	-9060
▁እንደምታ	-9061
▁የሚደረግ	-9062
▁shield	-9063
▁warned	-9064
▁ወደሚገኘው	-9065
▁repeated	-9066
▁consequences	-9067
ልባ	-9068
በእ	-9069
ብላ	-9070
ንጎ	-9071
ውስ	-9072
ton	-9073
ቋል።	-9074
ድስት	-9075
ጀመር	-9076
▁እጄ	-9077
enge	-9078
ሰባችን	-9079
▁ዙፋን	-9080
▁cell	-9081
▁farm	-9082
▁hang	-9083
▁zech	-9084
▁በቀጥታ	-9085
▁ትናንት	-9086
▁ነገዶች	-9087
▁ይገኛል	-9088
▁ጽሁፎች	-9089
▁crown	-9090
▁eaten	-9091
▁renew	-9092
▁vital	-9093
▁እስራኤላ	-9094
▁እንዲያገኙ	-9095
▁ከመጀመሪያ	-9096
▁የሃይማኖት	-9097
▁passing	-9098
▁challenge	-9099
▁exceeding	-9100
▁shepherds	-9101
ሌት	-9102
ዚቃ	-9103
▁ጐ	-9104
ዛችሁ	-9105
▁ላለ	-9106
▁ክፋ	-9107
▁ያበ	-9108
emen	-9109
ሰማቸው	-9110
▁ማግኘ	-9111
▁በቅን	-9112
▁ከምት	-9113
▁accus	-9114
▁scrib	-9115
▁አንደኛው	-9116
▁disobed	-9117
▁environ	-9118
▁incense	-9119
▁የእስራኤልም	-9120
▁unrighteous	-9121
--	-9122
ብሩ	-9123
ፋን	-9124
alu	-9125
ery	-9126
ረኞች	-9127
ባባይ	-9128
ከውን	-9129
ደበኛ	-9130
▁ልቤ	-9131
▁በፖ	-9132
▁ተክ	-9133
▁ከጸ	-9134
▁የሲ	-9135
▁የዲ	-9136
▁ጸል	-9137
ከናውን	-9138
▁gun	-9139
▁ሊሆኑ	-9140
▁አምጥ	-9141
▁ወንጀ	-9142
▁የዚያ	-9143
▁genu	-9144
▁idea	-9145
▁inqu	-9146
▁jeph	-9147
▁ባለበት	-9148
▁abram	-9149
▁arose	-9150
▁broke	-9151
▁chair	-9152
▁spoil	-9153
▁stumb	-9154
▁terms	-9155
▁trave	-9156
▁ነበራቸው	-9157
▁ከተማዋን	-9158
▁ክርስቶስን	-9159
▁employer	-9160
▁palestin	-9161
▁standard	-9162
▁interested	-9163
▁furthermore	-9164
ስኮ	-9165
ገሰ	-9166
ፈስ	-9167
ፈታ	-9168
ሉበት	-9169
ቀመጫ	-9170
ዲዎች	-9171
ጽሐፍ	-9172
▁49	-9173
▁ቅጣ	-9174
line	-9175
▁deg	-9176
▁የራስ	-9177
▁የያዙ	-9178
imate	-9179
▁ille	-9180
▁surf	-9181
▁ሆናችሁ	-9182
▁ሰጣቸው	-9183
▁አካሄድ	-9184
▁አውራጃ	-9185
▁ወጥተው	-9186
▁የባህር	-9187
▁godly	-9188
▁quite	-9189
▁trump	-9190
▁በከተማዋ	-9191
▁beauty	-9192
▁histor	-9193
▁galilee	-9194
▁ይኖርባቸዋል	-9195
▁almighty	-9196
▁branches	-9197
▁negative	-9198
▁peaceful	-9199
▁pursuant	-9200
ሳዩ	-9201
ነም	-9202
old	-9203
ule	-9204
ላውን	-9205
▁90	-9206
▁በሺ	-9207
▁የሆ	-9208
▁መስክ	-9209
▁ያንን	-9210
istic	-9211
▁bare	-9212
▁shad	-9213
▁shem	-9214
▁ማዳበር	-9215
▁በሚገኙ	-9216
▁የቅርብ	-9217
የሩሳሌምን	-9218
▁heavy	-9219
▁መጨረሻው	-9220
▁በነበሩት	-9221
▁ዘላለማዊ	-9222
▁ድንጋዮች	-9223
▁beasts	-9224
▁judged	-9225
▁lesson	-9226
▁seized	-9227
▁spouse	-9228
▁የሃዋርያት	-9229
▁jericho	-9230
▁sincere	-9231
▁similarly	-9232
▁strengthened	-9233
ትረ	-9234
ካው	-9235
ኳን	-9236
ስፋት	-9237
▁ሃና	-9238
▁ልኮ	-9239
▁በጋ	-9240
▁ውብ	-9241
▁የቢ	-9242
▁ያድ	-9243
ፈልግም	-9244
▁15,	-9245
▁ለመው	-9246
▁ለማዳ	-9247
▁ምኞት	-9248
▁ሲኾን	-9249
▁በአቅ	-9250
▁ተመራ	-9251
▁አሥራ	-9252
▁drew	-9253
▁ሥራዎች	-9254
▁ከመካከ	-9255
▁royal	-9256
▁worse	-9257
▁yours	-9258
▁ለማሳየት	-9259
▁እምላለሁ	-9260
▁ይኖረዋል	-9261
▁adjust	-9262
▁fields	-9263
▁ሁኔታዎችን	-9264
▁ተናግረዋል	-9265
▁norther	-9266
▁student	-9267
▁violent	-9268
▁በፈቃደኝነት	-9269
▁director	-9270
▁particul	-9271
▁reminded	-9272
▁integrity	-9273
ስትሪ	-9274
ከደነ	-9275
ዳድር	-9276
ጠበቁ	-9277
▁እል	-9278
▁ያዙ	-9279
plom	-9280
▁ሆነህ	-9281
▁ተወላ	-9282
▁ወፎች	-9283
▁የማስ	-9284
▁የከፋ	-9285
▁የዱር	-9286
acted	-9287
▁ሰላምታ	-9288
▁ተግሳጽ	-9289
▁ከግብጽ	-9290
tained	-9291
▁keeps	-9292
▁miles	-9293
▁diplom	-9294
▁pursue	-9295
▁strive	-9296
▁regards	-9297
▁ammonites	-9298
▁fortified	-9299
▁procedure	-9300
▁mountainous	-9301
ቃቤ	-9302
ናሴ	-9303
ዘዘ	-9304
ሙትን	-9305
ደበት	-9306
▁ሕፃ	-9307
▁በሜ	-9308
▁በጊ	-9309
▁ትዳ	-9310
▁ቶም	-9311
resh	-9312
መስረት	-9313
በራችሁ	-9314
ችኋል፤	-9315
ያዕቆብ	-9316
▁ሁሉ፣	-9317
▁በምታ	-9318
▁ይደር	-9319
▁ጩኸት	-9320
anced	-9321
inent	-9322
▁bars	-9323
▁dear	-9324
▁psal	-9325
▁ሽልማት	-9326
▁አጋንን	-9327
▁subst	-9328
▁በመንገድ	-9329
▁እንቅፋት	-9330
▁ወንዶችና	-9331
▁ያለባቸው	-9332
▁cursed	-9333
▁easter	-9334
▁flocks	-9335
▁moving	-9336
▁የመንግስቱ	-9337
▁wherever	-9338
▁scattered	-9339
▁institution	-9340
▁imprisonment	-9341
ሰለ	-9342
ሳም	-9343
500	-9344
nez	-9345
▁ተጨ	-9346
▁ጠቦ	-9347
ouds	-9348
ቀርቡት	-9349
ቸዋለህ	-9350
ኖቻቸው	-9351
ዘጋጀው	-9352
▁fre	-9353
▁ህመም	-9354
▁ራሴን	-9355
▁ዳይሬ	-9356
▁calm	-9357
▁sadd	-9358
▁ሃሳቦች	-9359
▁መግባት	-9360
▁በጸሎት	-9361
▁herod	-9362
▁homes	-9363
▁rules	-9364
▁መቆጣጠር	-9365
▁እንግሊዝ	-9366
▁length	-9367
▁silent	-9368
▁genuine	-9369
▁praying	-9370
▁studies	-9371
▁vineyard	-9372
▁traveling	-9373
▁encouraged	-9374
▁environment	-9375
ቆስ	-9376
ውቅ	-9377
የተ	-9378
ምስት	-9379
ሰብክ	-9380
ንፈስ	-9381
ፈዋል	-9382
▁ባሏ	-9383
ረንሳይ	-9384
▁jas	-9385
▁sen	-9386
▁ጠዋት	-9387
▁ፓርቲ	-9388
▁ends	-9389
▁fair	-9390
▁በዘመና	-9391
▁እውቅና	-9392
▁የምግብ	-9393
▁reply	-9394
▁እንደሌለ	-9395
▁ገልጸዋል	-9396
▁facing	-9397
▁percent	-9398
▁pleasing	-9399
▁existence	-9400
▁construction	-9401
ሉና	-9402
ይዛ	-9403
ጦስ	-9404
ler	-9405
ተሮች	-9406
▁ሕገ	-9407
▁ተኝ	-9408
▁ኖረ	-9409
▁ከጎ	-9410
▁ይው	-9411
▁ጥቂ	-9412
ding	-9413
▁12,	-9414
▁pho	-9415
▁አመሰ	-9416
▁የልጅ	-9417
adnez	-9418
▁መጠጊያ	-9419
▁ስምንት	-9420
▁ስራውን	-9421
▁አላት።	-9422
▁የሚወዱ	-9423
▁plain	-9424
▁staff	-9425
▁walls	-9426
▁የአፍሪካ	-9427
▁ፈቃደኞች	-9428
▁advant	-9429
▁nebuch	-9430
▁thrown	-9431
adnezzar	-9432
▁holding	-9433
▁prosper	-9434
▁victory	-9435
▁accompan	-9436
▁accurate	-9437
▁amorites	-9438
▁defeated	-9439
▁disaster	-9440
▁distance	-9441
▁northern	-9442
▁centuries	-9443
▁expression	-9444
▁foundation	-9445
▁communication	-9446
▁nebuchadnezzar	-9447
አስ	-9448
ዝም	-9449
ለን፤	-9450
ሥራት	-9451
ዎች፣	-9452
ግራይ	-9453
▁ለጋ	-9454
▁ሸሽ	-9455
▁jan	-9456
▁በትር	-9457
▁በውሃ	-9458
▁ባህል	-9459
▁ከብር	-9460
▁ይቀበ	-9461
▁ግንባ	-9462
▁drun	-9463
▁duty	-9464
▁በዓለም	-9465
▁ደግሞስ	-9466
▁ግንዛቤ	-9467
ateral	-9468
licted	-9469
▁broad	-9470
▁doors	-9471
▁purch	-9472
▁utter	-9473
▁dishon	-9474
▁joyful	-9475
▁undert	-9476
▁ባለሥልጣን	-9477
▁current	-9478
▁limited	-9479
▁sinners	-9480
▁ለእያንዳንዱ	-9481
▁products	-9482
▁literature	-9483
▁fulfillment	-9484
ናኛ	-9485
ሠራው	-9486
ቀውን	-9487
ይህን	-9488
ይቱም	-9489
▁ቶሎ	-9490
▁ካሳ	-9491
▁ያእ	-9492
▁ዱቄ	-9493
▁ber	-9494
▁lam	-9495
▁ቅርጽ	-9496
▁ወሳኝ	-9497
▁የመግ	-9498
▁pull	-9499
▁race	-9500
▁ለሕዝቡ	-9501
▁ለዳዊት	-9502
▁በማድረ	-9503
▁አብረን	-9504
▁እረፍት	-9505
▁ዮናታን	-9506
ይሁዳውያን	-9507
▁advoc	-9508
▁bride	-9509
▁coast	-9510
▁strik	-9511
▁ራሳችሁን	-9512
▁clouds	-9513
▁nearly	-9514
▁tomorrow	-9515
▁interpret	-9516
▁institutions	-9517
ሌም	-9518
ኝና	-9519
ገፋ	-9520
ጥና	-9521
ልና፤	-9522
ሩትን	-9523
እነሆ	-9524
ኩረት	-9525
ኪዎች	-9526
ፈቀደ	-9527
▁ለቀ	-9528
▁ገዛ	-9529
nday	-9530
▁10,	-9531
▁መዳን	-9532
▁አጠና	-9533
▁ይደረ	-9534
▁ግጭት	-9535
▁ፖሊሲ	-9536
▁mans	-9537
▁መርከብ	-9538
▁መብቶች	-9539
▁ብሔራዊ	-9540
▁አላህን	-9541
▁ድንበር	-9542
usting	-9543
▁tells	-9544
▁thres	-9545
▁በሚስማማ	-9546
▁ነበር፡፡	-9547
▁midian	-9548
▁nathan	-9549
▁struct	-9550
▁tender	-9551
▁በትእግስት	-9552
▁እንደሚገባ	-9553
▁ይገኙበታል	-9554
▁overcome	-9555
▁ለእስራኤላውያን	-9556
▁authorized	-9557
ዱስ	-9558
ጡን	-9559
ረዳህ	-9560
በዋል	-9561
አላህ	-9562
ይቱን	-9563
▁አፋ	-9564
▁ያመ	-9565
azar	-9566
iast	-9567
ችለውን	-9568
▁sky	-9569
▁ስጋት	-9570
▁ዘመቻ	-9571
▁ዘርፍ	-9572
▁kore	-9573
▁ሌላውን	-9574
▁መብላት	-9575
▁አስቀም	-9576
▁ኩባንያ	-9577
▁የእሳት	-9578
▁crime	-9579
▁ስርአቶች	-9580
▁የተለያየ	-9581
▁ያቀርባል	-9582
▁ግለሰቦች	-9583
▁clergy	-9584
▁ለማስወገድ	-9585
▁culture	-9586
▁growing	-9587
▁የሚያደርጉት	-9588
▁drinking	-9589
▁whosoever	-9590
▁sanctified	-9591
ቡ።	-9592
ከእ	-9593
ኩ፤	-9594
ዥን	-9595
የዋ	-9596
ደስ	-9597
ዷል	-9598
iqu	-9599
ህንና	-9600
ንቀጽ	-9601
ያችን	-9602
▁ሳሉ	-9603
▁ቀረ	-9604
▁ቀጣ	-9605
ሏቸዋል	-9606
ካርያስ	-9607
▁han	-9608
▁opt	-9609
▁ሆነ፤	-9610
▁በከፊ	-9611
▁ተልእ	-9612
▁የመም	-9613
▁ይነግ	-9614
▁ይጠቅ	-9615
ዎቻቸውን	-9616
▁shel	-9617
▁twel	-9618
▁ሰብአዊ	-9619
▁ሰውነት	-9620
▁ነበረ፤	-9621
▁ኢዮአብ	-9622
▁empty	-9623
▁honey	-9624
▁critic	-9625
▁hypocr	-9626
▁rivers	-9627
▁አላቸው፡፡	-9628
▁bearing	-9629
▁eleazar	-9630
▁turning	-9631
▁numerous	-9632
▁published	-9633
ጽፍ	-9634
ሟላት	-9635
ርሲቲ	-9636
ነሳት	-9637
▁በኩ	-9638
▁flo	-9639
▁sid	-9640
▁wed	-9641
▁መቅሰ	-9642
▁በመመ	-9643
▁አለቆ	-9644
▁ወስደ	-9645
▁ይጠቁ	-9646
epend	-9647
▁1998	-9648
▁bure	-9649
▁obst	-9650
▁በሌሊት	-9651
▁ከጥቂት	-9652
▁sugar	-9653
▁እየጨመረ	-9654
ንጸባረቅበት	-9655
▁በአካባቢው	-9656
▁america	-9657
▁conceal	-9658
▁herself	-9659
▁sending	-9660
▁እንዳለባቸው	-9661
▁እንድናደርግ	-9662
▁የመንግስቱን	-9663
▁criminal	-9664
▁prospect	-9665
▁sanctify	-9666
▁abimelech	-9667
ኒክ	-9668
ደቅ	-9669
ፒታል	-9670
▁አዲ	-9671
▁ካላ	-9672
hern	-9673
ኒኬሽን	-9674
ፈጸሙት	-9675
▁ash	-9676
▁ሰይጣ	-9677
▁ተቀበ	-9678
▁ትናን	-9679
▁እርግ	-9680
▁ጋዜጠ	-9681
▁dele	-9682
▁disg	-9683
▁በፍርድ	-9684
▁ባለቤቴ	-9685
▁አንተስ	-9686
▁ግለሰቡ	-9687
▁armed	-9688
▁grown	-9689
▁motiv	-9690
▁ሁኔታውን	-9691
▁እንቅልፍ	-9692
▁የሃጢአት	-9693
▁offend	-9694
▁unable	-9695
▁ያመለክታል	-9696
▁southern	-9697
▁slaughter	-9698
▁publications	-9699
ij	-9700
ልማ	-9701
ቀኑ	-9702
ኑ።	-9703
ስያስ	-9704
ከብሩ	-9705
▁ሁን	-9706
▁ያየ	-9707
▁ፎቶ	-9708
ቀኝነት	-9709
▁16,	-9710
▁17,	-9711
▁ሰነድ	-9712
▁ከልክ	-9713
▁የተዋ	-9714
▁የፍት	-9715
▁ይገደ	-9716
ምፒውተር	-9717
ባልንጀራ	-9718
▁scar	-9719
▁ሃይለኛ	-9720
▁እነሆ፣	-9721
▁የሚወስ	-9722
▁fifth	-9723
▁የሚያስደ	-9724
▁custom	-9725
▁devast	-9726
▁psalms	-9727
▁regret	-9728
▁assured	-9729
▁የሚያስፈልጉ	-9730
▁ዲሞክራሲያዊ	-9731
▁hundreds	-9732
▁listened	-9733
▁determine	-9734
▁receiving	-9735
▁supported	-9736
▁constantly	-9737
ሷን	-9738
ሽና	-9739
ባይ	-9740
ከመ	-9741
ኳር	-9742
ጎድ	-9743
ሌክት	-9744
ራሉ።	-9745
ሰጥህ	-9746
ነጋግ	-9747
ከብር	-9748
ውሮፓ	-9749
ጣሪያ	-9750
▁መሞ	-9751
▁አቤ	-9752
▁የጻ	-9753
▁ጽኑ	-9754
ከፋፈል	-9755
▁በመፍ	-9756
▁በቅድ	-9757
▁ይበል	-9758
▁ይወዳ	-9759
▁ይዟል	-9760
▁ግብፅ	-9761
▁ጤናማ	-9762
oints	-9763
▁fier	-9764
▁goat	-9765
▁rams	-9766
▁ስላለው	-9767
inated	-9768
▁abner	-9769
▁bowed	-9770
▁evalu	-9771
▁በረከቶች	-9772
▁በድንገት	-9773
▁የሆነችው	-9774
▁ይፈልጋል	-9775
▁enable	-9776
▁mental	-9777
▁unjust	-9778
▁እናውቃለን	-9779
▁conflict	-9780
▁statutes	-9781
▁abundance	-9782
▁entertain	-9783
▁governing	-9784
▁injustice	-9785
▁worthless	-9786
▁particular	-9787
ቀሳ	-9788
ዝግ	-9789
▁ጂ	-9790
▁ፒ	-9791
ባበር	-9792
ጥጥር	-9793
▁51	-9794
▁ህል	-9795
▁ውል	-9796
▁ያካ	-9797
fare	-9798
rodu	-9799
they	-9800
ራቸው።	-9801
ገናኘት	-9802
▁jap	-9803
▁ታዛዥ	-9804
inion	-9805
▁flow	-9806
▁glob	-9807
▁quar	-9808
▁ሰጥቷል	-9809
▁በእጅጉ	-9810
▁ወጥመድ	-9811
▁የሰውን	-9812
▁grief	-9813
▁naked	-9814
▁expert	-9815
▁oromia	-9816
▁scroll	-9817
▁twelve	-9818
▁ከእነርሱም	-9819
▁russian	-9820
▁treated	-9821
▁የሚከተሉትን	-9822
▁majority	-9823
▁observed	-9824
በታ	-9825
ሆንን	-9826
ያምኑ	-9827
▁ማል	-9828
▁ሳራ	-9829
▁ብሩ	-9830
▁የዜ	-9831
▁ይዋ	-9832
▁ጄኔ	-9833
aith	-9834
▁ced	-9835
▁መስሎ	-9836
▁በመቅ	-9837
▁በአራ	-9838
▁ቢሆኑ	-9839
▁አነሳ	-9840
▁እችላ	-9841
▁ከክፉ	-9842
▁comb	-9843
▁ልጆቹን	-9844
▁እስራት	-9845
▁ያደርጉ	-9846
▁eager	-9847
▁thorn	-9848
▁እንዳለን	-9849
▁ወንድሞቹ	-9850
▁bureau	-9851
▁feared	-9852
▁highly	-9853
▁speaks	-9854
▁stress	-9855
▁setting	-9856
▁station	-9857
▁በህይወታችን	-9858
▁እንዲኖራቸው	-9859
▁pioneers	-9860
▁signific	-9861
▁surrounding	-9862
ሞና	-9863
ቡም	-9864
▁q	-9865
bre	-9866
hob	-9867
ሪክኛ	-9868
ቃጠል	-9869
ነጋገ	-9870
ከተለ	-9871
ዘጋጃ	-9872
▁ድሃ	-9873
▁ከእሷ	-9874
▁የሚበ	-9875
atory	-9876
▁aust	-9877
▁mach	-9878
▁risk	-9879
▁ለረጅም	-9880
▁ራሳቸው	-9881
▁ከሰዎች	-9882
▁ካደረግ	-9883
▁የተጻፈ	-9884
ounced	-9885
▁arrog	-9886
▁delay	-9887
▁overt	-9888
▁tents	-9889
▁utens	-9890
▁ሉዓላዊው	-9891
▁በምድርም	-9892
▁አምላክም	-9893
▁እንደገለ	-9894
▁ያደረጉት	-9895
ization	-9896
▁center	-9897
▁extend	-9898
▁መዛሙርቱን	-9899
▁careful	-9900
▁usually	-9901
▁እንደሚቻለው	-9902
▁included	-9903
▁independ	-9904
▁judicial	-9905
▁treasure	-9906
▁resurrected	-9907
30	-9908
ሪም	-9909
በደ	-9910
▁ማዶ	-9911
▁ያወ	-9912
▁ጉድ	-9913
▁ለማን	-9914
▁ሲሰማ	-9915
▁ተቆጥ	-9916
▁አናት	-9917
▁pope	-9918
▁ለሁለት	-9919
▁መቅረብ	-9920
▁በዳዊት	-9921
▁በግብጽ	-9922
▁award	-9923
▁moral	-9924
▁pregn	-9925
▁ከነበረው	-9926
▁ከእነሱም	-9927
itating	-9928
▁energy	-9929
▁በሁለተኛው	-9930
▁አድርገዋል	-9931
▁እንድንሆን	-9932
▁ከክርስቶስ	-9933
▁manager	-9934
▁citizens	-9935
▁associate	-9936
▁canaanites	-9937
ኖስን	-9938
ጸውን	-9939
▁ውሸ	-9940
▁የጣ	-9941
▁ጠፍ	-9942
▁13,	-9943
▁ራስን	-9944
▁ሰፈር	-9945
▁በዙፋ	-9946
▁አካሉ	-9947
▁አዳራ	-9948
▁የሞተ	-9949
▁ፕሮጀ	-9950
▁arch	-9951
▁chal	-9952
▁syri	-9953
▁መገኘት	-9954
▁ጥንታዊ	-9955
▁amend	-9956
▁equal	-9957
▁syria	-9958
▁በመገናኛ	-9959
▁በተወሰነ	-9960
▁ተዋጊዎች	-9961
▁አሳይቷል	-9962
▁የማደሪያ	-9963
▁healed	-9964
▁provin	-9965
▁recent	-9966
▁continu	-9967
▁officer	-9968
▁contrast	-9969
▁እንደሚከተለው	-9970
▁directives	-9971
ህኑ	-9972
ህ፣	-9973
ሱ።	-9974
ቁ፤	-9975
ጨስ	-9976
ፓን	-9977
eas	-9978
ume	-9979
ሪዎቹ	-9980
ሮሚያ	-9981
ገልገ	-9982
▁gi	-9983
▁የቤ	-9984
▁ጣዖ	-9985
aved	-9986
rees	-9987
▁ሃያል	-9988
▁መገን	-9989
▁ስላለ	-9990
▁በረዶ	-9991
▁በቀን	-9992
▁በቀጣ	-9993
▁ቦርድ	-9994
▁እንቁ	-9995
▁እጥፍ	-9996
▁የህግ	-9997
▁2013	-9998
▁መስሪያ	-9999
▁ማጥናት	-10000
▁ሴቶችን	-10001
▁አስተዳ	-10002
▁የሚገቡ	-10003
▁በትኩረት	-10004
▁ጉዳዮችን	-10005
▁መሳሪያዎች	-10006
▁በአብዛኛው	-10007
▁የሚያገለግ	-10008
▁የተባለውን	-10009
▁advance	-10010
▁dismiss	-10011
▁letters	-10012
▁catholic	-10013
▁original	-10014
ሌቪ	-10015
ኮራ	-10016
ረዱት	-10017
በራት	-10018
▁ቅጂ	-10019
▁ተጫ	-10020
▁ውሎ	-10021
▁የሩ	-10022
ዋለሁ።	-10023
ግባባት	-10024
▁ህጎች	-10025
▁ስደት	-10026
▁ይወሰ	-10027
▁ጸሃፊ	-10028
▁ልጆችም	-10029
▁ሰማያዊ	-10030
▁አባቶች	-10031
▁ከወንድ	-10032
▁perce	-10033
▁ማከናወን	-10034
▁ጉባኤዎች	-10035
▁season	-10036
▁abandon	-10037
▁painful	-10038
▁communion	-10039
ስቡ	-10040
ሸሽ	-10041
ማማች	-10042
ቋቸው	-10043
አንድ	-10044
አዴግ	-10045
▁ተሞ	-10046
▁እዳ	-10047
▁ዘግ	-10048
▁ርእሰ	-10049
▁እናም	-10050
▁ከሆኑ	-10051
▁የመሳ	-10052
▁የራሱ	-10053
▁ግብጽ	-10054
ulted	-10055
ላችሁ፡፡	-10056
▁copy	-10057
▁mild	-10058
▁pred	-10059
▁በምንም	-10060
▁ነበርና	-10061
▁እርካታ	-10062
▁የተሰማ	-10063
asters	-10064
▁behav	-10065
▁leban	-10066
▁tower	-10067
▁twenty	-10068
▁weight	-10069
▁በመንግስት	-10070
▁enjoyed	-10071
▁mourning	-10072
▁separate	-10073
▁previously	-10074
ለየ	-10075
ሪና	-10076
ቃድ	-10077
ፉም	-10078
ብሮን	-10079
ዶቹን	-10080
▁ካር	-10081
▁ውስ	-10082
▁nab	-10083
▁ሆንኩ	-10084
▁በርሱ	-10085
▁ተነስ	-10086
▁አንበ	-10087
▁እስክ	-10088
▁የህዝ	-10089
▁የሙያ	-10090
areth	-10091
icate	-10092
ሙኒኬሽን	-10093
▁ሃዋርያ	-10094
▁በአንቺ	-10095
▁ቡድኖች	-10096
▁ያስታው	-10097
▁concl	-10098
▁feast	-10099
▁ህዝቅያስ	-10100
▁ተከታዮች	-10101
▁የለበትም	-10102
▁የሚፈልግ	-10103
entions	-10104
▁agreed	-10105
▁extent	-10106
▁plague	-10107
▁በአንዳንድ	-10108
▁እብራውያን	-10109
▁የተጠቀሰው	-10110
▁scribes	-10111
▁shechem	-10112
▁requires	-10113
▁utensils	-10114
▁cultivate	-10115
▁governments	-10116
ሶቹ	-10117
ሸን	-10118
ቆሙ	-10119
ካን	-10120
▁si	-10121
▁ማሰ	-10122
▁አሻ	-10123
▁ያቀ	-10124
▁ያደ	-10125
ገልግሎ	-10126
▁fil	-10127
▁mor	-10128
▁ሳያስ	-10129
▁አድሮ	-10130
▁የሰራ	-10131
force	-10132
ከደነጾር	-10133
▁ህክምና	-10134
▁መደምደ	-10135
▁መጻህፍ	-10136
▁በሰጠው	-10137
▁ብቻውን	-10138
▁አሉ፡፡	-10139
▁ጻድቃን	-10140
ensive	-10141
▁drawn	-10142
▁ለመናገር	-10143
▁መሆናቸው	-10144
▁በተግባር	-10145
▁ዘገባዎች	-10146
▁የሳይንስ	-10147
▁የተደነገ	-10148
▁bright	-10149
▁gospel	-10150
▁exposed	-10151
▁science	-10152
▁ያስፈልገናል	-10153
▁adultery	-10154
▁increased	-10155
▁residents	-10156
▁የሚያስፈልገውን	-10157
▁approached	-10158
▁unleavened	-10159
ሩ፤	-10160
ጁን	-10161
ጠም	-10162
hor	-10163
ley	-10164
ራዊው	-10165
ትርያ	-10166
▁ህገ	-10167
▁ከሙ	-10168
▁ውር	-10169
▁ድረ	-10170
ware	-10171
whel	-10172
መናችሁ	-10173
ረጋግጥ	-10174
▁መጽሐ	-10175
▁የተቃ	-10176
▁የእኛ	-10177
▁ደካማ	-10178
uting	-10179
ችኋለሁ።	-10180
▁pron	-10181
▁ተቋማት	-10182
▁አንደኛ	-10183
▁የማስተ	-10184
▁የታሪክ	-10185
▁የትኛው	-10186
▁extra	-10187
▁ought	-10188
▁wheat	-10189
▁ለመድረስ	-10190
▁በእርሱም	-10191
▁የሚባለው	-10192
▁contro	-10193
▁freely	-10194
▁ሃይማኖታዊ	-10195
▁እያንዳንዳ	-10196
▁extreme	-10197
▁አልነበረም።	-10198
▁እናደርጋለን	-10199
▁arrested	-10200
▁glorious	-10201
▁meditate	-10202
▁overwhel	-10203
▁documents	-10204
▁zechariah	-10205
▁appointment	-10206
ላር	-10207
ሞቹ	-10208
ብቃ	-10209
ካቤ	-10210
▁ዊ	-10211
ረጠው	-10212
ሳፍጥ	-10213
▁ሀብ	-10214
▁ለሙ	-10215
▁ተጓ	-10216
▁dil	-10217
▁ላለመ	-10218
▁ተክል	-10219
▁ንድፍ	-10220
▁ንግግ	-10221
tower	-10222
▁ahaz	-10223
▁alco	-10224
▁በብዛት	-10225
▁በትጋት	-10226
rences	-10227
▁basic	-10228
▁haile	-10229
▁lambs	-10230
▁schol	-10231
▁በኤርትራ	-10232
▁አልቻለም	-10233
▁forest	-10234
▁images	-10235
▁society	-10236
▁western	-10237
▁warriors	-10238
▁watchtower	-10239
▁conversation	-10240
ሃይ	-10241
ህ።	-10242
ተኮ	-10243
ጡር	-10244
ጣኝ	-10245
och	-10246
ork	-10247
who	-10248
▁ሰሚ	-10249
▁የሜ	-10250
▁ያዝ	-10251
ታል፡፡	-10252
▁dig	-10253
▁ቦርዱ	-10254
▁አይነ	-10255
▁የቃል	-10256
▁የጀመ	-10257
hamed	-10258
▁አእምሯ	-10259
▁የንጉሡ	-10260
▁threw	-10261
▁አይደለሁ	-10262
▁damage	-10263
▁relief	-10264
▁division	-10265
▁relative	-10266
▁directive	-10267
▁enterprise	-10268
▁application	-10269
መጽ	-10270
ዩስ	-10271
ጥቅ	-10272
ብራራ	-10273
ታውቅ	-10274
ኋችሁ	-10275
▁ca	-10276
▁ታቦ	-10277
▁ካስ	-10278
▁ግዙ	-10279
mael	-10280
ract	-10281
▁exc	-10282
▁jah	-10283
▁ሊኖር	-10284
▁ሞትን	-10285
▁ረዳት	-10286
▁ቤትና	-10287
▁ትግል	-10288
▁አለማ	-10289
▁ከሥራ	-10290
ading	-10291
ivity	-10292
▁arms	-10293
▁hind	-10294
▁sept	-10295
▁soft	-10296
▁ተልእኮ	-10297
▁የሃሰት	-10298
▁annih	-10299
▁rehob	-10300
▁stead	-10301
▁አለችው።	-10302
▁ruling	-10303
▁superv	-10304
▁creditor	-10305
▁sufficient	-10306
my	-10307
ወት	-10308
ጎም	-10309
ata	-10310
ሞክር	-10311
ካሄደ	-10312
ክተር	-10313
ውንት	-10314
▁መሲ	-10315
▁ታያ	-10316
▁እሳ	-10317
▁የፓ	-10318
ከናውኑ	-10319
ዝርዝር	-10320
▁(1)	-10321
▁abi	-10322
▁መቼም	-10323
▁ሲያስ	-10324
▁ስሙን	-10325
▁ስራው	-10326
▁በክፉ	-10327
▁በዓል	-10328
▁ባለት	-10329
▁እናቴ	-10330
▁ወጣ።	-10331
▁ያለም	-10332
▁ገበሬ	-10333
▁ግርማ	-10334
oking	-10335
▁መቀጠል	-10336
▁ትእዛዛ	-10337
▁የሰማይ	-10338
▁music	-10339
▁ያስገኛል	-10340
▁ascend	-10341
▁golden	-10342
▁policy	-10343
▁reside	-10344
▁summon	-10345
▁በመሠዊያው	-10346
▁እንመለከታ	-10347
▁የተመሰረተ	-10348
▁lebanon	-10349
▁praised	-10350
▁running	-10351
▁telling	-10352
▁creature	-10353
▁endurance	-10354
▁additional	-10355
▁importance	-10356
▁personally	-10357
▁establishment	-10358
መታ	-10359
ቀፋ	-10360
ዘም	-10361
▁ኡ	-10362
ዋርያ	-10363
uish	-10364
uits	-10365
ትረፈረ	-10366
▁dru	-10367
▁wip	-10368
▁ለሌላ	-10369
▁በምር	-10370
▁ፕሬስ	-10371
▁levi	-10372
▁rout	-10373
▁sack	-10374
▁shed	-10375
▁span	-10376
▁ምዝገባ	-10377
▁አስኪያ	-10378
▁ያውቃሉ	-10379
▁micah	-10380
▁ለአገልጋ	-10381
▁በድንጋይ	-10382
▁donkey	-10383
▁እንድትሆን	-10384
▁benefic	-10385
▁closely	-10386
▁prevail	-10387
▁promote	-10388
▁resolve	-10389
▁abundant	-10390
▁accident	-10391
▁discoura	-10392
▁governor	-10393
▁instructions	-10394
እኛ	-10395
ለት፤	-10396
ስተን	-10397
ጎናጸ	-10398
▁የጠ	-10399
▁ደጃ	-10400
lend	-10401
▁ሚስቶ	-10402
▁ቁሳዊ	-10403
▁በስሜ	-10404
▁አስች	-10405
▁አዘዘ	-10406
▁እውቀ	-10407
▁ዋነኛ	-10408
▁ያነሳ	-10409
▁ይችል	-10410
▁መውጣት	-10411
▁አሳልፌ	-10412
▁እፈልጋ	-10413
▁የሂሳብ	-10414
▁ጤንነት	-10415
▁negot	-10416
▁swore	-10417
▁መንግስቱ	-10418
▁መኳንንት	-10419
▁በተባለው	-10420
▁እንዲኖሩ	-10421
▁ከኢየሱስ	-10422
▁የምስክር	-10423
▁ድርጊቶች	-10424
▁pilate	-10425
▁contact	-10426
▁unbelie	-10427
▁intended	-10428
▁preserve	-10429
▁traveled	-10430
▁advantage	-10431
ረም	-10432
ሪስ	-10433
ኗን	-10434
ius	-10435
uff	-10436
ሯል።	-10437
በረው	-10438
ብቅና	-10439
ካችሁ	-10440
ወሰደ	-10441
▁ox	-10442
▁ባዶ	-10443
▁አጽ	-10444
rors	-10445
መረምራ	-10446
▁hat	-10447
▁mah	-10448
▁sod	-10449
▁ሊባል	-10450
▁ልባዊ	-10451
▁ሙከራ	-10452
▁ብረት	-10453
▁የተሻ	-10454
▁ገበያ	-10455
▁ጸሃይ	-10456
▁ፀሐይ	-10457
ጠቀሙበት	-10458
▁chap	-10459
▁deny	-10460
▁heed	-10461
▁reap	-10462
▁stir	-10463
▁አይነቱ	-10464
▁ወደምት	-10465
▁ይኖራሉ	-10466
▁achie	-10467
▁boast	-10468
▁proof	-10469
▁stick	-10470
▁wills	-10471
▁በየጊዜው	-10472
▁አይደለም፤	-10473
▁eternal	-10474
▁sharing	-10475
▁በእያንዳንዱ	-10476
▁arrangement	-10477
▁disbelievers	-10478
?’	-10479
መህ	-10480
ቀፍ	-10481
▁ጳ	-10482
201	-10483
awi	-10484
ለችው	-10485
መሰግ	-10486
ሰብኩ	-10487
▁እጣ	-10488
▁የቁ	-10489
pent	-10490
መርመር	-10491
ራል፡፡	-10492
▁ess	-10493
▁gro	-10494
▁ሀገር	-10495
▁መቅረ	-10496
▁መንስ	-10497
▁ርቀት	-10498
▁ሸክም	-10499
▁አዛዥ	-10500
▁አዲሱ	-10501
▁አጋጥ	-10502
▁ከምን	-10503
▁ያገኙ	-10504
ቸዋለሁ።	-10505
▁2001	-10506
▁prob	-10507
▁ለማለት	-10508
▁ልብሱን	-10509
▁በጽናት	-10510
▁አንዳች	-10511
▁ኤጀንሲ	-10512
▁ከፈለግ	-10513
▁ይሄዳል	-10514
▁fault	-10515
▁ታውቃለህ	-10516
▁excell	-10517
▁refuse	-10518
▁supply	-10519
▁እንዳለብን	-10520
▁ድንጋጌዎች	-10521
▁chariot	-10522
▁crushed	-10523
▁teaches	-10524
▁weeping	-10525
▁devotion	-10526
▁overseer	-10527
▁referred	-10528
▁character	-10529
▁employees	-10530
▁discovered	-10531
▁obligation	-10532
▁publishers	-10533
ሃኒ	-10534
ሶር	-10535
ኒያ	-10536
ዋይ	-10537
ጥራ	-10538
ጨው	-10539
ፋስ	-10540
isl	-10541
ልጠና	-10542
▁ኖሬ	-10543
▁ይን	-10544
ቀበለው	-10545
ቃውያን	-10546
▁ልውው	-10547
▁በህግ	-10548
▁ይባር	-10549
▁ጣልቃ	-10550
▁ጨረቃ	-10551
iable	-10552
▁rome	-10553
▁መጽሄት	-10554
▁በየቤተ	-10555
▁አሰራር	-10556
▁እንዲታ	-10557
▁የሚሆነ	-10558
▁የምናገ	-10559
▁ጥቅሶች	-10560
▁ፈርዖን	-10561
▁ፍቅርና	-10562
▁color	-10563
▁frequ	-10564
▁መታሰቢያ	-10565
▁የባቢሎን	-10566
▁bethle	-10567
▁demons	-10568
▁ለማከናወን	-10569
▁በሰባተኛው	-10570
▁earnest	-10571
▁eastern	-10572
▁washing	-10573
▁affected	-10574
ሏት	-10575
ነቅ	-10576
aam	-10577
ሜሌክ	-10578
ሦስት	-10579
ታንያ	-10580
▁ይፋ	-10581
fall	-10582
▁urg	-10583
▁መጣ።	-10584
▁በልቡ	-10585
▁ብሔር	-10586
▁የጥን	-10587
eness	-10588
▁cold	-10589
▁emer	-10590
▁writ	-10591
▁ተለይቶ	-10592
▁ያረጋግ	-10593
▁ፍጽምና	-10594
ground	-10595
▁urged	-10596
▁ነውና፡፡	-10597
▁አለበት።	-10598
▁የተያያዘ	-10599
▁ይሰማኛል	-10600
▁rachel	-10601
▁ለማረጋገጥ	-10602
▁መንግሥታት	-10603
▁ያደርጋል።	-10604
▁ashamed	-10605
▁glorify	-10606
▁restore	-10607
▁supplic	-10608
▁surface	-10609
▁talents	-10610
▁unfaith	-10611
▁numbered	-10612
▁treatment	-10613
▁acceptable	-10614
ልቶ	-10615
ጋቢ	-10616
▁ኔ	-10617
ልኛል	-10618
ብብር	-10619
ከትል	-10620
ጥናት	-10621
▁52	-10622
▁ከየ	-10623
thah	-10624
ክብካቤ	-10625
▁በቤቱ	-10626
▁ነው፥	-10627
point	-10628
▁vast	-10629
▁ሊረዳን	-10630
▁ሚስቶች	-10631
▁ርህራሄ	-10632
▁እስኪያ	-10633
▁የሕዝብ	-10634
▁ፍጥረት	-10635
▁outer	-10636
▁taste	-10637
▁ለመቋቋም	-10638
▁አመስጋኝ	-10639
▁የሚረዳን	-10640
▁ይሆናሉ።	-10641
▁የሚሰጠውን	-10642
▁የአብርሃም	-10643
▁condemn	-10644
▁devoted	-10645
▁የእውነተኛው	-10646
▁jephthah	-10647
ሃዊ	-10648
ዙን	-10649
ገለጥ	-10650
▁54	-10651
▁ለኤ	-10652
▁ትራ	-10653
ረዋል።	-10654
▁lat	-10655
▁ሄዋን	-10656
▁ለራሱ	-10657
▁ሳለሁ	-10658
▁በህዝ	-10659
▁በመስ	-10660
▁ተባባ	-10661
▁አልጋ	-10662
▁የግድ	-10663
▁ይመል	-10664
▁ጣቢያ	-10665
▁blue	-10666
▁bush	-10667
▁gide	-10668
▁unre	-10669
▁ምስሎች	-10670
▁በከንቱ	-10671
▁አዳራሽ	-10672
▁አገላለ	-10673
▁ከሕዝቡ	-10674
▁ከይሖዋ	-10675
▁የበኩር	-10676
▁የተሠራ	-10677
▁ጊዜያዊ	-10678
▁bulls	-10679
▁coord	-10680
▁liber	-10681
▁ለመውሰድ	-10682
▁እችላለሁ	-10683
hearted	-10684
▁indign	-10685
▁thirst	-10686
▁አገልጋይህ	-10687
▁የትምህርት	-10688
▁dispute	-10689
▁germany	-10690
▁offices	-10691
▁bethlehem	-10692
ህሩ	-10693
ላእ	-10694
መኝ	-10695
ሳሽ	-10696
ብና	-10697
ቻሉ	-10698
ኖን	-10699
ዳዩ	-10700
ሎቹን	-10701
ስቱም	-10702
ወቀው	-10703
ዋንም	-10704
▁ሊፈ	-10705
▁ሰበ	-10706
▁እሰ	-10707
▁ከዓ	-10708
▁ወል	-10709
ales	-10710
ትክልት	-10711
ንቀጠቀ	-10712
▁በቀስ	-10713
▁በቁጣ	-10714
▁በከተ	-10715
▁የነገ	-10716
▁የእጅ	-10717
verty	-10718
yards	-10719
ንተርኔት	-10720
አናውያን	-10721
▁band	-10722
▁bott	-10723
▁slow	-10724
▁በጽድቅ	-10725
▁አደርግ	-10726
▁እረኞች	-10727
▁ይመስል	-10728
▁dilig	-10729
▁ለመመለስ	-10730
▁የተሳሳተ	-10731
▁ይሰጠናል	-10732
▁balaam	-10733
▁bought	-10734
▁burden	-10735
▁easier	-10736
▁anxious	-10737
▁poverty	-10738
▁እንደገለጸው	-10739
▁እንደተናገረው	-10740
▁collateral	-10741
ሌታ	-10742
መዘ	-10743
ሜታ	-10744
አባ	-10745
ቀመጠ	-10746
ቧቸው	-10747
ኛል፤	-10748
▁ለት	-10749
▁ሚክ	-10750
▁ቀበ	-10751
▁ባስ	-10752
▁ታጋ	-10753
ልስጤም	-10754
ሰጣችሁ	-10755
▁21.	-10756
▁bom	-10757
▁በመም	-10758
▁በመሰ	-10759
▁በማግ	-10760
▁ከስራ	-10761
▁የፕሮ	-10762
▁ዱቄት	-10763
aniah	-10764
ቀርበውን	-10765
ደርጋቸው	-10766
▁neck	-10767
▁valu	-10768
▁ለሌላው	-10769
▁መመለስ	-10770
▁ክርክር	-10771
▁ወዳጆች	-10772
▁የተቀረ	-10773
▁የተወደ	-10774
▁ያነሳሳ	-10775
▁surpr	-10776
▁ምልክቶች	-10777
▁ምሳሌዎች	-10778
▁በየአመቱ	-10779
▁አደረገ፤	-10780
▁ክርስትና	-10781
▁የፌዴራል	-10782
eration	-10783
▁camped	-10784
▁decept	-10785
▁devour	-10786
▁eccles	-10787
▁gideon	-10788
▁normal	-10789
▁pillar	-10790
▁እንደሚመጣ	-10791
▁inspect	-10792
▁contrary	-10793
▁intellig	-10794
▁mistakes	-10795
▁emotional	-10796
▁inhabited	-10797
▁responded	-10798
ሙና	-10799
ረኝ	-10800
ናግ	-10801
ን።	-10802
ኮት	-10803
ዘበ	-10804
ደለ	-10805
ርስቲ	-10806
ሰጠኝ	-10807
ቃሉ።	-10808
ከሰት	-10809
ወረደ	-10810
ፈውን	-10811
▁መዳ	-10812
▁ታና	-10813
▁ጫና	-10814
lied	-10815
ላውያን	-10816
ሪያዎች	-10817
እነሆ፣	-10818
ጆቻችሁ	-10819
▁uzz	-10820
▁በመግ	-10821
▁በጥሩ	-10822
▁ባድማ	-10823
▁አቋር	-10824
▁አኗኗ	-10825
▁ኮረብ	-10826
▁የበረ	-10827
▁ያምና	-10828
ories	-10829
▁heat	-10830
▁milk	-10831
▁shar	-10832
▁ትዕዛዝ	-10833
ctions	-10834
giving	-10835
worthy	-10836
▁መጠበቂያ	-10837
▁በአግባቡ	-10838
▁የካህናት	-10839
▁distur	-10840
▁forced	-10841
▁መደምደሚያ	-10842
▁የሚገኙትን	-10843
▁የራሳቸውን	-10844
........	-10845
▁clothed	-10846
▁clothes	-10847
▁recalled	-10848
▁concluded	-10849
▁evolution	-10850
▁temporary	-10851
▁ecclesiast	-10852
ለፉ	-10853
ማቅ	-10854
ቃጥ	-10855
በስ	-10856
ቢዩ	-10857
ተወ	-10858
ክሲ	-10859
ደሉ	-10860
ከፋፈ	-10861
ካሄዱ	-10862
ዖንም	-10863
ደሰቱ	-10864
▁ማማ	-10865
▁ቅሬ	-10866
▁ከቦ	-10867
▁ከቶ	-10868
▁የጌ	-10869
▁ይሄ	-10870
▁ይጋ	-10871
ador	-10872
▁19,	-10873
▁ሄደ፤	-10874
▁ለአን	-10875
▁ምድብ	-10876
▁ባለን	-10877
▁ትበላ	-10878
▁አሰና	-10879
▁የተጣ	-10880
▁ይቀጥ	-10881
umble	-10882
▁cere	-10883
▁seat	-10884
▁symb	-10885
▁vain	-10886
▁መለከት	-10887
▁ብሄራዊ	-10888
▁ተቀመጡ	-10889
▁ተጠቅሞ	-10890
▁ያለብን	-10891
▁colon	-10892
▁iraqi	-10893
▁laban	-10894
▁በዝርዝር	-10895
▁የተነገረ	-10896
▁review	-10897
▁spring	-10898
▁በትምህርት	-10899
▁consist	-10900
▁counted	-10901
▁follows	-10902
▁visited	-10903
▁የሚያገለግሉ	-10904
▁universe	-10905
▁performed	-10906
▁department	-10907
▁difference	-10908
▁satisfaction	-10909
ሎማ	-10910
ረቅ	-10911
ሮው	-10912
መበት	-10913
ቶሊክ	-10914
ገናኘ	-10915
ግባኝ	-10916
▁ለታ	-10917
▁ሠር	-10918
▁የሺ	-10919
▁የኬ	-10920
▁ፍየ	-10921
alon	-10922
ሃለሁ፤	-10923
ቻቸውም	-10924
ዎቻችን	-10925
▁ሊያሳ	-10926
▁ማምለ	-10927
▁የላከ	-10928
▁የልብ	-10929
▁የመታ	-10930
▁ያለማ	-10931
ables	-10932
alous	-10933
orter	-10934
▁salt	-10935
▁ተፈፃሚ	-10936
▁አብርሃ	-10937
▁ካላቸው	-10938
▁schem	-10939
▁ለመስማት	-10940
▁በመከተል	-10941
▁የሚሆኑት	-10942
▁ይችላሉ።	-10943
▁finish	-10944
▁regime	-10945
▁thirty	-10946
▁በሚቀጥለው	-10947
▁የሚገባውን	-10948
▁immoral	-10949
▁proceed	-10950
▁regions	-10951
▁ክርስቲያናዊ	-10952
▁behavior	-10953
▁husbands	-10954
▁watching	-10955
▁እንመለከታለን	-10956
▁specified	-10957
▁foreigners	-10958
ov	-10959
ላቁ	-10960
ረቤ	-10961
ሮቼ	-10962
ብል	-10963
ኳይ	-10964
ድኑ	-10965
ፈኑ	-10966
ift	-10967
osy	-10968
ሳል።	-10969
ፌሰር	-10970
▁ሄሮ	-10971
▁ርስ	-10972
▁ከካ	-10973
▁ወፍ	-10974
▁የን	-10975
▁የፀ	-10976
iega	-10977
▁aba	-10978
▁aug	-10979
▁box	-10980
▁mad	-10981
▁mes	-10982
▁ሙታን	-10983
▁ራስህ	-10984
▁ነጥብ	-10985
▁እሆና	-10986
መለከቱት	-10987
▁magn	-10988
▁root	-10989
▁ማንነት	-10990
▁በሚለው	-10991
▁በሰሜን	-10992
▁በአዲሱ	-10993
▁በጥብቅ	-10994
▁ይከታተ	-10995
▁arrow	-10996
▁grace	-10997
▁spear	-10998
▁በሚደርስ	-10999
▁ተቀምጠው	-11000
▁አስፈጻሚ	-11001
▁fruits	-11002
▁repair	-11003
▁circuit	-11004
▁comment	-11005
▁የኢየሩሳሌም	-11006
▁identify	-11007
▁restored	-11008
▁continues	-11009
▁recommend	-11010
▁resources	-11011
▁competence	-11012
ማሚ	-11013
በክ	-11014
ቶን	-11015
ዋሪ	-11016
ለማት	-11017
የውም	-11018
ጫወት	-11019
▁በጠ	-11020
odus	-11021
room	-11022
▁ሪፖር	-11023
▁ትሁት	-11024
▁ትተው	-11025
▁አህያ	-11026
▁አለች	-11027
▁ወጣ፤	-11028
ember	-11029
▁task	-11030
▁ባልደረ	-11031
▁ተስማም	-11032
▁አለዚያ	-11033
▁ይላል።	-11034
▁minds	-11035
▁chalde	-11036
▁exodus	-11037
▁hungry	-11038
▁sorrow	-11039
▁እንዲኖረን	-11040
▁ያደርጋል፤	-11041
▁confron	-11042
▁picture	-11043
▁እንቅስቃሴዎች	-11044
▁ከእግዚአብሔር	-11045
▁ecclesiastes	-11046
መሠ	-11047
ዳሉ	-11048
ጥፎ	-11049
ሰበው	-11050
ደግሞ	-11051
▁መደ	-11052
▁ከጠ	-11053
▁ወራ	-11054
▁ጠቁ	-11055
mble	-11056
አቸው።	-11057
ይናንስ	-11058
ገነዘቡ	-11059
ጣቸውን	-11060
▁በብር	-11061
▁በእሷ	-11062
▁ይሰጥ	-11063
▁ጓደኞ	-11064
▁ጠቦት	-11065
iment	-11066
▁sock	-11067
▁መንስኤ	-11068
▁በዚህች	-11069
▁ቤተሰቡ	-11070
▁ተራራማ	-11071
▁የተመዘ	-11072
ulated	-11073
▁abide	-11074
▁owner	-11075
▁queen	-11076
▁ህይወቱን	-11077
▁በመልካም	-11078
▁በመግለጽ	-11079
▁በዙሪያው	-11080
▁አሳቢነት	-11081
▁እነሆም፥	-11082
▁የሚናገሩ	-11083
▁legisl	-11084
▁jealous	-11085
▁session	-11086
▁settled	-11087
▁shekels	-11088
▁connection	-11089
▁scientists	-11090
ህሉ	-11091
መዛ	-11092
በቀ	-11093
ኬም	-11094
ክሰ	-11095
law	-11096
ሸከም	-11097
ካከያ	-11098
ድርጉ	-11099
ጠዋል	-11100
▁ሃኪ	-11101
▁በቋ	-11102
▁በኬ	-11103
ዎችንና	-11104
ግራችሁ	-11105
▁መንደ	-11106
▁ተሸክ	-11107
▁አላው	-11108
▁ወሰዱ	-11109
▁የአይ	-11110
ishes	-11111
ከናወነው	-11112
▁tomb	-11113
▁በየቀኑ	-11114
▁በግንባ	-11115
▁እንዲቀ	-11116
▁የቀረው	-11117
▁የዮሴፍ	-11118
▁ጌታችን	-11119
commun	-11120
▁floor	-11121
▁greed	-11122
▁repay	-11123
▁acting	-11124
▁ambass	-11125
▁possib	-11126
▁strate	-11127
▁ማህበረሰብ	-11128
cription	-11129
▁village	-11130
▁disgusting	-11131
ስቦ	-11132
ዎቼ	-11133
የሚ	-11134
god	-11135
ለሞን	-11136
ምራዊ	-11137
ንድር	-11138
▁መፈ	-11139
▁ሩት	-11140
▁ባን	-11141
▁ኪሩ	-11142
adab	-11143
ኅብረት	-11144
ዳውያን	-11145
▁600	-11146
▁bid	-11147
▁kir	-11148
▁ለመታ	-11149
▁ልጆቼ	-11150
▁ሞክር	-11151
▁ሲታይ	-11152
▁አዛኝ	-11153
▁የአሞ	-11154
▁ጠየቀ	-11155
ander	-11156
▁1997	-11157
▁wear	-11158
▁በደረሰ	-11159
▁እንዳስ	-11160
▁ወለደ፤	-11161
▁ውጥረት	-11162
▁harsh	-11163
▁japan	-11164
▁proud	-11165
▁ሌዋውያኑ	-11166
▁ወንድሞቼ	-11167
▁የሌለበት	-11168
▁josiah	-11169
▁የመከላከያ	-11170
▁noriega	-11171
▁popular	-11172
▁hereafter	-11173
▁disbelieve	-11174
▁permission	-11175
▁cooperation	-11176
ሌኮ	-11177
ታች	-11178
ነህ	-11179
ከሉ	-11180
bon	-11181
fee	-11182
orm	-11183
ማል።	-11184
ስዩስ	-11185
ቆብን	-11186
ቶቹም	-11187
ኸውን	-11188
▁53	-11189
▁ተአ	-11190
▁ኒው	-11191
okes	-11192
መለክት	-11193
ቀረቡት	-11194
ኖሩበት	-11195
▁lod	-11196
▁መሠረ	-11197
▁መስራ	-11198
▁መጽሃ	-11199
▁ቀጠለ	-11200
▁በመዝ	-11201
▁በኢዮ	-11202
▁አጽና	-11203
▁እየታ	-11204
▁ኮሪያ	-11205
▁ዜጎች	-11206
▁የሚከ	-11207
▁ግምጃ	-11208
aging	-11209
ትርያርኩ	-11210
▁መኾኑን	-11211
▁በማስተ	-11212
▁ይህችን	-11213
▁ይሖዋ፣	-11214
▁ይደርስ	-11215
▁ደመወዝ	-11216
▁entit	-11217
▁equip	-11218
▁sodom	-11219
▁turns	-11220
▁በድፍረት	-11221
▁እንዲሄድ	-11222
▁የተለመደ	-11223
▁የተገኘው	-11224
▁የኢኮኖሚ	-11225
▁ያለበትን	-11226
▁ይገባል።	-11227
ointing	-11228
▁leaves	-11229
▁እንክብካቤ	-11230
▁ያስችለናል	-11231
▁divorce	-11232
▁lessons	-11233
▁studied	-11234
▁trained	-11235
▁designed	-11236
▁involves	-11237
▁discussion	-11238
ወዱ	-11239
ግቶ	-11240
inn	-11241
lly	-11242
rah	-11243
ወደስ	-11244
ጨነቅ	-11245
▁ብቁ	-11246
▁ንጽ	-11247
▁አሥ	-11248
▁ጥበ	-11249
alek	-11250
▁18,	-11251
▁nah	-11252
▁በምና	-11253
▁በአካ	-11254
▁አልለ	-11255
▁አየሁ	-11256
▁ከምድ	-11257
ifies	-11258
ቸዋለሁ፤	-11259
▁data	-11260
▁fors	-11261
▁herd	-11262
▁idol	-11263
▁rage	-11264
▁መክብብ	-11265
▁ምእራፍ	-11266
▁ምክትል	-11267
▁በመከራ	-11268
▁በአስራ	-11269
▁ተናግራ	-11270
▁ትናንሽ	-11271
▁አስተው	-11272
▁የተሟላ	-11273
▁initi	-11274
▁radio	-11275
▁recon	-11276
▁ships	-11277
▁ለተወሰነ	-11278
▁ማናቸውም	-11279
▁labour	-11280
▁points	-11281
▁በምትገኘው	-11282
▁እንዲኖረው	-11283
▁ከኢየሩሳሌም	-11284
▁directly	-11285
▁discussed	-11286
▁technology	-11287
▁temptation	-11288
▁wrongdoers	-11289
ክቱ	-11290
igr	-11291
ril	-11292
ሻውን	-11293
አልና	-11294
ኮታዊ	-11295
ውራጃ	-11296
ገኝም	-11297
▁ሥነ	-11298
▁ብድ	-11299
▁ኑሮ	-11300
▁119	-11301
▁ath	-11302
▁ቀለም	-11303
▁የአር	-11304
▁ያመኑ	-11305
▁ደጋግ	-11306
▁ጥራት	-11307
▁ጨርቅ	-11308
usive	-11309
▁argu	-11310
▁july	-11311
▁ባህርያ	-11312
▁የሚሰራ	-11313
▁የዓለም	-11314
▁ድርጅቱ	-11315
መለከታቸው	-11316
▁ended	-11317
▁grass	-11318
▁hated	-11319
▁ዘካርያስ	-11320
▁annual	-11321
▁global	-11322
▁ከማንኛውም	-11323
▁claimed	-11324
▁consume	-11325
▁details	-11326
▁install	-11327
▁pregnant	-11328
▁valuable	-11329
▁weakness	-11330
ልስ	-11331
እና	-11332
ከም	-11333
ጥፋ	-11334
ፍል	-11335
▁ዚ	-11336
ሪቱም	-11337
ነገር	-11338
ከላዊ	-11339
ገናኝ	-11340
▁በቢ	-11341
▁ከረ	-11342
▁arg	-11343
▁መኮን	-11344
▁ባለማ	-11345
▁ውሰድ	-11346
▁ውሸት	-11347
ufact	-11348
ulate	-11349
▁diss	-11350
▁palm	-11351
▁wave	-11352
▁መኖሩን	-11353
▁ምንዝር	-11354
▁ርእሶች	-11355
▁በማለዳ	-11356
▁ችለዋል	-11357
▁ነጥቦች	-11358
▁አሕዛብ	-11359
▁ኢያሱም	-11360
▁እንዳላ	-11361
▁ወስደው	-11362
▁ገብተው	-11363
▁react	-11364
▁seize	-11365
▁somal	-11366
▁sworn	-11367
▁ሌዋውያን	-11368
▁ተመልከቱ	-11369
▁ተገቢውን	-11370
▁አለመሆኑ	-11371
▁አስተማሪ	-11372
▁የምንለው	-11373
▁amalek	-11374
▁የሚያስፈል	-11375
▁ishmael	-11376
▁survive	-11377
▁እግዚአብሄር	-11378
▁fruitage	-11379
ዛኝ	-11380
aye	-11381
ሁትን	-11382
ሄራት	-11383
መውን	-11384
ስሐቅ	-11385
ትም።	-11386
ትረፍ	-11387
ግስና	-11388
▁dw	-11389
▁ከዛ	-11390
▁የቡ	-11391
▁ያነ	-11392
▁ይጮ	-11393
ንፈሳዊ	-11394
▁ሠረገ	-11395
▁አመን	-11396
▁አይቶ	-11397
▁እልል	-11398
▁ከእን	-11399
▁የብዙ	-11400
▁ያጋጠ	-11401
▁ይወር	-11402
▁ፋሲካ	-11403
icted	-11404
▁geor	-11405
▁mort	-11406
▁pard	-11407
▁ሊባኖስ	-11408
▁ልውውጥ	-11409
▁በሕዝቡ	-11410
▁አቅርቡ	-11411
▁እቃዎች	-11412
▁ከሚያስ	-11413
▁ከአዲስ	-11414
▁የሚነካ	-11415
▁የሚጠራ	-11416
▁የማይታ	-11417
▁sweet	-11418
▁በሚሊዮን	-11419
▁ተመለከተ	-11420
▁cometh	-11421
▁haught	-11422
▁የተባበሩት	-11423
▁charges	-11424
▁developed	-11425
▁slaughtered	-11426
▁particularly	-11427
ምስ	-11428
በሰ	-11429
ጣሬ	-11430
▁ሟ	-11431
amm	-11432
ሽከር	-11433
ዝነው	-11434
▁ታች	-11435
▁ትቶ	-11436
▁ትዝ	-11437
▁ውጣ	-11438
aunt	-11439
hest	-11440
▁400	-11441
▁ማሳየ	-11442
▁ቅርብ	-11443
▁ተማር	-11444
▁አልባ	-11445
▁እርሷ	-11446
▁የሕዝ	-11447
▁ይፈጽ	-11448
anged	-11449
ንዱስትሪ	-11450
▁anti	-11451
▁gets	-11452
▁lepr	-11453
▁ለሰባት	-11454
▁ማረፊያ	-11455
▁ራሳችሁ	-11456
▁በእጅህ	-11457
▁አማራጭ	-11458
▁አሮንን	-11459
▁የመጡት	-11460
▁disgr	-11461
▁piece	-11462
▁sheba	-11463
▁ሊቃውንት	-11464
▁ሚኒስቴሩ	-11465
▁ሠራተኛው	-11466
▁አንችልም	-11467
▁እንዳሉት	-11468
▁ከማድረግ	-11469
▁signed	-11470
▁viewed	-11471
▁ታውቃላችሁ	-11472
▁እርምጃዎች	-11473
▁የሚከተለው	-11474
▁ፈሪሳውያን	-11475
▁exactly	-11476
▁introdu	-11477
▁praises	-11478
▁vessels	-11479
▁ወንድሞቻችን	-11480
▁occurred	-11481
▁foreigner	-11482
▁ከእስራኤላውያን	-11483
▁population	-11484
ኦት	-11485
ለተኛ	-11486
▁km	-11487
▁ጎጂ	-11488
▁ጣፋ	-11489
anda	-11490
ሰልጠን	-11491
ቀበሉት	-11492
ደርሰው	-11493
ጦርነት	-11494
▁ቀንም	-11495
▁ተወስ	-11496
▁ክስተ	-11497
▁የተላ	-11498
ashan	-11499
▁naph	-11500
▁sens	-11501
▁በቅርብ	-11502
▁አቀረቡ	-11503
▁እስክት	-11504
▁እንዳታ	-11505
▁የለበት	-11506
▁የተሰሩ	-11507
▁የተነሣ	-11508
▁ridic	-11509
▁በማቅረብ	-11510
▁ተመልሰው	-11511
▁አደረገው	-11512
▁እንዲሰጥ	-11513
▁የመምረጥ	-11514
▁የማግኘት	-11515
▁breath	-11516
▁deceit	-11517
▁symbol	-11518
▁temper	-11519
▁አስፋፊዎች	-11520
▁እንዳደረገ	-11521
▁causing	-11522
▁እንደተጠበቀ	-11523
▁internal	-11524
▁associated	-11525
▁telecommun	-11526
▁performance	-11527
ረባ	-11528
ናባ	-11529
ንሰ	-11530
ዋጋ	-11531
የኝ	-11532
ግሬ	-11533
bec	-11534
ሰጡት	-11535
ስታዊ	-11536
ቅኤል	-11537
ቢያት	-11538
ጡትን	-11539
ፈሩት	-11540
▁መረ	-11541
▁መወ	-11542
▁ሳል	-11543
▁ቃለ	-11544
▁ቃሉ	-11545
▁በች	-11546
▁ባዩ	-11547
▁ካም	-11548
▁ዕጣ	-11549
ህአዴግ	-11550
መልከቻ	-11551
ባቸው።	-11552
ከናወኑ	-11553
▁mut	-11554
▁psy	-11555
▁sor	-11556
▁ለመን	-11557
▁ለደቀ	-11558
▁በወጣ	-11559
▁ነዋሪ	-11560
▁የሕግ	-11561
▁የተጋ	-11562
▁ይጠፋ	-11563
ircum	-11564
ትዮጵያን	-11565
▁2012	-11566
▁bird	-11567
▁deaf	-11568
▁frag	-11569
▁kiss	-11570
▁ትፈልጋ	-11571
▁ናት፡፡	-11572
▁ኢዮርብ	-11573
▁ጉባኤው	-11574
cribed	-11575
▁chast	-11576
▁colle	-11577
▁withd	-11578
▁zebul	-11579
▁ሚኒስትሩ	-11580
▁በሰንበት	-11581
▁አጠቃላይ	-11582
▁እንደማያ	-11583
▁ወዲያውም	-11584
▁የትኞቹን	-11585
▁ጽሁፎችን	-11586
▁crowds	-11587
▁kindly	-11588
▁splend	-11589
▁በዮርዳኖስ	-11590
▁የሚናገረው	-11591
▁beliefs	-11592
▁compens	-11593
▁relates	-11594
▁stumble	-11595
▁አገልጋዮቹን	-11596
▁uncircum	-11597
▁afflicted	-11598
▁associations	-11599
ሰሰ	-11600
ሸጥ	-11601
ኖም	-11602
ዓን	-11603
ገጥ	-11604
non	-11605
ልኝ።	-11606
ሔራት	-11607
ሻለሁ	-11608
ቆጠር	-11609
ኃጢአ	-11610
ናዊው	-11611
ያሪኮ	-11612
▁ማቅ	-11613
▁ቆዳ	-11614
▁ባት	-11615
▁ከሩ	-11616
▁ጨካ	-11617
▁aim	-11618
▁tid	-11619
▁ማመን	-11620
▁ሲሰሙ	-11621
▁ቤቴል	-11622
▁ነው፦	-11623
▁ነገሩ	-11624
▁ከተወ	-11625
▁የማህ	-11626
▁የሞቱ	-11627
▁ያሳድ	-11628
▁ዮፍታ	-11629
onomy	-11630
ርዳኖስን	-11631
▁cale	-11632
▁guar	-11633
▁roof	-11634
▁uses	-11635
▁ለሆነው	-11636
▁በወንድ	-11637
▁lowly	-11638
▁storm	-11639
▁yield	-11640
▁የእናንተ	-11641
▁interv	-11642
▁played	-11643
▁austral	-11644
▁cherubs	-11645
▁ezekiel	-11646
▁partners	-11647
▁እንደሚያደርግ	-11648
▁professor	-11649
▁strangers	-11650
▁treasures	-11651
▁repentance	-11652
ልፉ	-11653
ነጨ	-11654
cer	-11655
cip	-11656
hib	-11657
ከረም	-11658
ኳችሁ	-11659
ወሰዱ	-11660
ዩተር	-11661
ገደል	-11662
▁ኤር	-11663
▁ዋይ	-11664
▁የሀ	-11665
▁ያጣ	-11666
izes	-11667
ከታተል	-11668
ከናወነ	-11669
▁jab	-11670
▁መጠጥ	-11671
▁ሰምቶ	-11672
▁ስለሌ	-11673
▁ቀለበ	-11674
▁በዋነ	-11675
while	-11676
▁boat	-11677
▁game	-11678
▁stub	-11679
▁zone	-11680
▁ሆነዋል	-11681
▁ለመያዝ	-11682
▁መበለት	-11683
▁መጋረጃ	-11684
▁በጨለማ	-11685
▁የሚሄዱ	-11686
▁ይጠበቅ	-11687
▁ፈረሶች	-11688
▁hills	-11689
▁ideas	-11690
▁የሚያስጨ	-11691
▁august	-11692
▁bashan	-11693
▁easily	-11694
▁loaves	-11695
▁refugee	-11696
▁scarlet	-11697
▁ናቡከደነጾር	-11698
▁manufact	-11699
▁receives	-11700
▁believing	-11701
▁complaint	-11702
▁ephesians	-11703
▁september	-11704
▁remembered	-11705
!’	-11706
ቲት	-11707
ዳሜ	-11708
hop	-11709
ስበክ	-11710
ቷል፤	-11711
ወድቅ	-11712
ጀመሩ	-11713
ፋችሁ	-11714
▁ላሉ	-11715
▁አሠ	-11716
▁ዘን	-11717
▁ግፍ	-11718
▁ጥቃ	-11719
ሌቪዥን	-11720
ጠቀሰው	-11721
ፈለገው	-11722
ፈርኦን	-11723
▁awe	-11724
▁ልጅም	-11725
▁ሳምን	-11726
▁ተቋቁ	-11727
▁ተያይ	-11728
▁ታገኛ	-11729
▁እሄዳ	-11730
▁gent	-11731
▁ሳኦልን	-11732
▁በእሱም	-11733
▁ተናገሩ	-11734
▁ተናግሮ	-11735
▁አላገኘ	-11736
▁የጠበቀ	-11737
▁april	-11738
▁cease	-11739
▁ለመግለጽ	-11740
▁ስለሚያስ	-11741
▁በፍርሃት	-11742
▁አንዳቸው	-11743
▁እነዚህም	-11744
▁ወደሆነው	-11745
▁ውሳኔዎች	-11746
▁የሚበልጡ	-11747
▁የተፈጥሮ	-11748
▁height	-11749
▁orders	-11750
▁chapter	-11751
▁failure	-11752
▁rescued	-11753
▁አስፈላጊውን	-11754
▁disciple	-11755
▁extended	-11756
▁industry	-11757
▁dangerous	-11758
▁forgotten	-11759
▁gathering	-11760
▁residence	-11761
▁consideration	-11762
ላቀ	-11763
ቦቼ	-11764
ጠጡ	-11765
▁ጾ	-11766
aud	-11767
uls	-11768
ስራቅ	-11769
▁ሰሎ	-11770
▁ከሥ	-11771
amar	-11772
ekah	-11773
iram	-11774
umed	-11775
will	-11776
ብራራል	-11777
▁መዘዝ	-11778
▁በማህ	-11779
▁እሰጥ	-11780
▁የለሽ	-11781
▁የመን	-11782
▁የዘር	-11783
▁ጀልባ	-11784
▁adds	-11785
▁cand	-11786
▁edge	-11787
▁kidn	-11788
▁outl	-11789
▁wilt	-11790
▁ስለምት	-11791
▁በተስፋ	-11792
▁የአሮን	-11793
▁ያሳየው	-11794
▁damas	-11795
▁estim	-11796
▁exalt	-11797
▁guest	-11798
▁quiet	-11799
▁ለማምጣት	-11800
▁camels	-11801
▁lawful	-11802
▁shadow	-11803
▁ለመከላከል	-11804
▁ከኢትዮጵያ	-11805
▁የምንኖረው	-11806
▁የተሰጠውን	-11807
▁execute	-11808
▁guarant	-11809
▁majesty	-11810
▁messiah	-11811
▁oppress	-11812
▁rebekah	-11813
▁እውነተኛውን	-11814
▁covering	-11815
▁shoulder	-11816
▁attending	-11817
▁democracy	-11818
▁positions	-11819
▁willingly	-11820
▁conclusion	-11821
▁illustrate	-11822
▁encouraging	-11823
▁instruments	-11824
▁preparation	-11825
ሳለ	-11826
ቃጠ	-11827
ኔር	-11828
ገመ	-11829
eta	-11830
በኞች	-11831
ክብት	-11832
▁መራ	-11833
▁ቆላ	-11834
▁ከለ	-11835
▁ከቤ	-11836
▁የኪ	-11837
▁ጫማ	-11838
ንድሞቹ	-11839
▁awa	-11840
▁ped	-11841
▁ለየት	-11842
▁ቀጠሮ	-11843
▁ቃሌን	-11844
▁አታው	-11845
▁ዋናው	-11846
▁የሆን	-11847
▁ያጋጥ	-11848
▁ይገዛ	-11849
▁ይገድ	-11850
ማውያንም	-11851
▁abel	-11852
▁rely	-11853
▁ሃይሎች	-11854
▁ሚዛናዊ	-11855
▁ስለምን	-11856
▁በስፋት	-11857
▁አቤቱታ	-11858
▁አውጥቶ	-11859
▁consp	-11860
▁sorts	-11861
▁መገንዘብ	-11862
▁ተግባራት	-11863
▁የሌሎችን	-11864
▁የሚናገር	-11865
▁washed	-11866
▁wouldn	-11867
▁በመሆናቸው	-11868
▁ተሰብስበው	-11869
▁healthy	-11870
▁streets	-11871
▁የአስተዳደር	-11872
▁superior	-11873
▁condemned	-11874
▁assistance	-11875
▁palestinian	-11876
ራቡ	-11877
ቀኛ	-11878
በቁ	-11879
ባዔ	-11880
ዎቿ	-11881
ድሶ	-11882
ጸጸ	-11883
ለው።	-11884
ስሃቅ	-11885
▁ሙሽ	-11886
▁በሀ	-11887
▁ትይ	-11888
▁ኾኖ	-11889
▁ግዛ	-11890
ደግሞም	-11891
▁ale	-11892
▁ሃሴት	-11893
▁ምንዳ	-11894
▁በራስ	-11895
▁በከነ	-11896
▁ትርፍ	-11897
▁ይበላ	-11898
▁ደጃፍ	-11899
ምፒዩተር	-11900
▁shap	-11901
▁stup	-11902
▁vide	-11903
▁york	-11904
▁በአንዱ	-11905
▁ባሻገር	-11906
▁ነውና፤	-11907
▁አልቀረ	-11908
asphem	-11909
▁amhar	-11910
▁deleg	-11911
▁drunk	-11912
▁ephod	-11913
▁polit	-11914
▁መከላከያ	-11915
▁እውነቱን	-11916
▁የሚመስል	-11917
▁intend	-11918
▁preced	-11919
▁propos	-11920
▁simeon	-11921
▁መጻህፍትን	-11922
▁በአስራዎቹ	-11923
▁appears	-11924
▁leprosy	-11925
▁wherein	-11926
▁apparent	-11927
▁blasphem	-11928
▁captives	-11929
▁damascus	-11930
▁prosecut	-11931
▁rehoboam	-11932
▁reproach	-11933
▁affliction	-11934
▁increasing	-11935
▁instructed	-11936
▁whatsoever	-11937
▁participate	-11938
ቀህ	-11939
ነባ	-11940
ያያ	-11941
ጸን	-11942
ጸየ	-11943
▁ጡ	-11944
ሉም።	-11945
ሊያን	-11946
ቱንና	-11947
ክንያ	-11948
ደዋል	-11949
▁ላል	-11950
▁ባረ	-11951
▁እዘ	-11952
▁ከሕ	-11953
reth	-11954
tali	-11955
ሮቻችን	-11956
ተማመን	-11957
ጀርመን	-11958
ገለገለ	-11959
▁bag	-11960
▁በንግ	-11961
▁ተሳት	-11962
▁አለ፤	-11963
▁አይቻ	-11964
▁አገባ	-11965
▁አፈፃ	-11966
▁ከሞተ	-11967
▁የአል	-11968
▁ያውቅ	-11969
▁1993	-11970
▁ende	-11971
▁june	-11972
▁pack	-11973
▁plot	-11974
▁ምሥራቅ	-11975
▁ሰላምና	-11976
▁በንጉሡ	-11977
▁ቢኖርም	-11978
▁አስፈሪ	-11979
▁ክፉዎች	-11980
▁የጥናት	-11981
▁የፍቅር	-11982
▁smote	-11983
▁በመግባት	-11984
▁በአገሪቱ	-11985
▁የእውነት	-11986
▁growth	-11987
▁ለመቆጣጠር	-11988
▁ማስተካከያ	-11989
▁በዋነኝነት	-11990
▁commend	-11991
▁reality	-11992
▁stretch	-11993
▁እንዲያደርግ	-11994
▁egyptian	-11995
▁obedience	-11996
▁experiences	-11997
ለታ	-11998
ደባ	-11999
ርሳቤ	-12000
ቀረብ	-12001
ጠመቅ	-12002
▁መቁ	-12003
▁ሚካ	-12004
▁ማኀ	-12005
▁ቁስ	-12006
▁ዕድ	-12007
▁የጭ	-12008
▁ይረ	-12009
ላል፡፡	-12010
ቸዋል፤	-12011
▁lad	-12012
▁ሄዱ።	-12013
▁ለሞት	-12014
▁መጠየ	-12015
▁ታሪኮ	-12016
▁ነኝ፤	-12017
▁ናት።	-12018
▁አሳው	-12019
▁አደራ	-12020
▁የጋራ	-12021
▁ያጠና	-12022
▁ይመረ	-12023
▁ጀርባ	-12024
▁ጥቁር	-12025
▁ፍየል	-12026
iance	-12027
isted	-12028
▁dies	-12029
▁fing	-12030
▁ልባችን	-12031
▁መሥሪያ	-12032
▁ርዝመት	-12033
▁አሏቸው	-12034
▁አባቱን	-12035
▁ያበረታ	-12036
▁ይሻላል	-12037
ortion	-12038
▁depth	-12039
▁fears	-12040
▁kinds	-12041
▁shine	-12042
▁wages	-12043
▁ለመወጣት	-12044
▁ሥልጣንና	-12045
▁አስኪያጅ	-12046
▁አቢሴሎም	-12047
▁እንዲሰማ	-12048
▁የከተማዋ	-12049
▁ያቀረበው	-12050
▁imposs	-12051
▁injury	-12052
▁እንመረምራ	-12053
▁aspects	-12054
▁gardens	-12055
▁illegal	-12056
▁kingdoms	-12057
▁chaldeans	-12058
▁structure	-12059
▁suggestions	-12060
ረር	-12061
ሰቃ	-12062
ኒው	-12063
ጪው	-12064
ጹን	-12065
mas	-12066
ረፍት	-12067
ታትን	-12068
ንጉሥ	-12069
ዋለህ	-12070
ያትና	-12071
▁ሞገ	-12072
▁ራቅ	-12073
▁ባር	-12074
▁ብጤ	-12075
▁ተላ	-12076
▁ከቁ	-12077
▁የሱ	-12078
▁ድክ	-12079
▁ገቡ	-12080
▁haz	-12081
▁lik	-12082
▁sla	-12083
▁በተገ	-12084
▁ወሮታ	-12085
▁የሮም	-12086
▁ይሰበ	-12087
▁ይበሉ	-12088
▁ጊዜው	-12089
going	-12090
guard	-12091
▁base	-12092
▁blam	-12093
▁unex	-12094
▁መገናኛ	-12095
▁ማውጣት	-12096
▁ስእለት	-12097
▁ብትሆን	-12098
▁እኩሌታ	-12099
▁የመጠጥ	-12100
▁feels	-12101
▁lower	-12102
▁magic	-12103
▁views	-12104
▁worry	-12105
▁ለእነዚህ	-12106
▁ማስወገድ	-12107
▁በባቢሎን	-12108
▁የሚስማማ	-12109
▁የገባውን	-12110
▁encamp	-12111
▁sinful	-12112
▁stupid	-12113
▁የሚያስችሉ	-12114
▁beneath	-12115
▁slavery	-12116
▁spirits	-12117
▁እንመረምራለን	-12118
▁terrified	-12119
▁journalists	-12120
".	-12121
ላሴ	-12122
በለ	-12123
ት፤	-12124
ካሬ	-12125
ዝቃ	-12126
ጉረ	-12127
ማስቆ	-12128
ሰተኛ	-12129
ቃወም	-12130
ዝነት	-12131
▁ብቃ	-12132
▁ተተ	-12133
▁የሄ	-12134
akim	-12135
ሆንበት	-12136
ቀዋል።	-12137
ገኛቸው	-12138
▁193	-12139
▁zed	-12140
▁ቀኑን	-12141
▁በበረ	-12142
▁በጀት	-12143
▁ትሰጣ	-12144
▁ነገሠ	-12145
▁አመቱ	-12146
▁ከልጅ	-12147
▁ውዳሴ	-12148
▁የባለ	-12149
▁የትም	-12150
▁የወይ	-12151
aliah	-12152
inese	-12153
orney	-12154
ንቀሳቀስ	-12155
▁ለመንግ	-12156
▁መድሃኒ	-12157
▁ምድርም	-12158
▁አድርጋ	-12159
▁ወለደ።	-12160
▁የሚጠቅ	-12161
▁የተገደ	-12162
▁የካዱት	-12163
▁ጓደኞች	-12164
▁3,000	-12165
▁dwelt	-12166
▁misle	-12167
▁በማሳየት	-12168
▁በቤተሰብ	-12169
▁አምላክና	-12170
▁አያውቅም	-12171
▁ከሚገኘው	-12172
▁ወዳድነት	-12173
▁የሚገልጹ	-12174
▁deuter	-12175
▁russia	-12176
▁illness	-12177
▁attorney	-12178
▁chairman	-12179
▁comments	-12180
▁entitled	-12181
▁internet	-12182
▁measured	-12183
▁naphtali	-12184
▁sickness	-12185
▁troubled	-12186
▁truthful	-12187
▁neighbors	-12188
▁providing	-12189
▁demonstrate	-12190
▁deuteronomy	-12191
▁possessions	-12192
ቀዱ	-12193
ቦን	-12194
ወገ	-12195
ዬም	-12196
ይር	-12197
ዴን	-12198
bus	-12199
ልግና	-12200
ጨመር	-12201
▁ከክ	-12202
▁ወኪ	-12203
▁ዘይ	-12204
▁ደሞ	-12205
▁ገዥ	-12206
▁uns	-12207
▁ታዋቂ	-12208
▁ዝሙት	-12209
▁ይጠቀ	-12210
acity	-12211
iling	-12212
▁cave	-12213
▁cope	-12214
▁በጽሁፍ	-12215
▁አምባሳ	-12216
▁እርሱን	-12217
▁ከመንግ	-12218
▁የለም፤	-12219
▁የሚቻል	-12220
▁የሚወጣ	-12221
▁ignor	-12222
▁selah	-12223
▁shime	-12224
▁venge	-12225
▁ለበርካታ	-12226
▁አልነበሩ	-12227
▁የመንፈስ	-12228
ሌኮሙኒኬሽን	-12229
▁endeav	-12230
▁nearby	-12231
▁prohib	-12232
▁ለእነርሱም	-12233
▁defiled	-12234
▁engaged	-12235
▁islands	-12236
▁researc	-12237
▁ህይወታቸውን	-12238
▁ዴሞክራሲያዊ	-12239
▁directed	-12240
▁dedication	-12241
ጋጭ	-12242
ሃቸው	-12243
ንም፥	-12244
ኛቸው	-12245
▁ህጉ	-12246
▁ይል	-12247
▁ፍን	-12248
ming	-12249
rain	-12250
መረምር	-12251
ባችሁም	-12252
ቸዋለን	-12253
ነው፡፡	-12254
▁120	-12255
▁spl	-12256
▁መውጫ	-12257
▁ስህተ	-12258
▁ሽብር	-12259
▁ባንክ	-12260
▁ትይዩ	-12261
▁አሳድ	-12262
▁የሚቀ	-12263
▁ጠበቃ	-12264
▁ጣፋጭ	-12265
ላቸው፡፡	-12266
▁code	-12267
▁eden	-12268
▁wool	-12269
▁yoke	-12270
▁ለወንድ	-12271
▁መቀመጫ	-12272
▁መደበኛ	-12273
▁ሚስቱን	-12274
▁በሆኑት	-12275
▁በቤቴል	-12276
▁በአይነ	-12277
▁ነገስት	-12278
▁አሳዛኝ	-12279
▁እናሳያ	-12280
▁እንበል	-12281
▁ወለደች	-12282
▁የሚሰሩ	-12283
▁የሚወድ	-12284
▁የቀሩት	-12285
▁የኢራቅ	-12286
▁ያላችሁ	-12287
▁ይህንም	-12288
ፈልጋቸውን	-12289
▁advis	-12290
▁below	-12291
▁china	-12292
▁green	-12293
▁refus	-12294
▁space	-12295
▁swall	-12296
▁ሃዋርያት	-12297
▁በርሳችሁ	-12298
▁እንዳልተ	-12299
▁purple	-12300
▁unlike	-12301
▁ለአብርሃም	-12302
▁በዘመናችን	-12303
▁charged	-12304
▁focused	-12305
▁እንዳደረገው	-12306
▁consumed	-12307
▁opposite	-12308
▁prophesy	-12309
▁teenager	-12310
▁እንደመሆናችን	-12311
▁impossible	-12312
▁repeatedly	-12313
▁translated	-12314
ላፋ	-12315
ተዋ	-12316
ካክ	-12317
ጠቡ	-12318
ጻጸ	-12319
nes	-12320
tho	-12321
ንተን	-12322
ከሰተ	-12323
ገናኙ	-12324
▁ስጡ	-12325
▁በጌ	-12326
iege	-12327
keep	-12328
ቀመጠው	-12329
ከለከለ	-12330
ክህነት	-12331
▁gil	-12332
▁van	-12333
▁ሰልፍ	-12334
▁ሰራዊ	-12335
▁በአው	-12336
▁በእው	-12337
▁የተቆ	-12338
▁ፈረሰ	-12339
ቶቻችንን	-12340
▁barn	-12341
▁bold	-12342
▁clay	-12343
▁deed	-12344
▁መላውን	-12345
▁ቀርበው	-12346
▁ነገረው	-12347
▁አለ፡፡	-12348
▁ኤፌሶን	-12349
▁ያስገኝ	-12350
▁ዮሴፍም	-12351
acious	-12352
▁craft	-12353
▁facts	-12354
▁judea	-12355
▁veget	-12356
▁መልክተኛ	-12357
▁ማስተማር	-12358
▁ስለዚህም	-12359
▁በእርግጠ	-12360
▁ተወዳዳሪ	-12361
▁አልቻሉም	-12362
▁እጃቸውን	-12363
▁ይሰማሃል	-12364
because	-12365
▁esther	-12366
▁tigray	-12367
▁british	-12368
▁chinese	-12369
▁escaped	-12370
▁pattern	-12371
▁concerns	-12372
▁priority	-12373
▁refugees	-12374
▁resident	-12375
▁resolved	-12376
▁stranger	-12377
▁ኢትዮጵያውያን	-12378
▁attendant	-12379
▁synagogue	-12380
▁transform	-12381
መዝ	-12382
ረሱ	-12383
ነኝ	-12384
ጣዊ	-12385
isc	-12386
nam	-12387
vey	-12388
ራለን	-12389
ቆየት	-12390
ዘገበ	-12391
ጊያው	-12392
ፉበት	-12393
▁በቴ	-12394
▁ታማ	-12395
▁ታም	-12396
▁ወጡ	-12397
▁ጸጥ	-12398
cked	-12399
orch	-12400
ዋለሁ፤	-12401
▁20,	-12402
▁መለከ	-12403
▁ማብራ	-12404
▁ቀንና	-12405
▁በኩር	-12406
▁ነገሰ	-12407
▁ክፍት	-12408
▁የበለ	-12409
▁asle	-12410
▁bask	-12411
▁ሊያጋጥ	-12412
▁መንደር	-12413
▁መዝገብ	-12414
▁መፍጠር	-12415
▁ሚስጥር	-12416
▁ስለሆኑ	-12417
▁በከፊል	-12418
▁ታላንት	-12419
▁እጅህን	-12420
▁ኮሚሽን	-12421
▁የባእድ	-12422
▁የግጦሽ	-12423
▁ጄኔራል	-12424
▁admon	-12425
▁finds	-12426
▁leads	-12427
▁paper	-12428
▁spain	-12429
▁total	-12430
▁ሁላችሁም	-12431
▁መመርመር	-12432
▁ሲመለከት	-12433
▁የማይችል	-12434
▁የጉባኤው	-12435
ography	-12436
▁ምስክርነት	-12437
▁በተናገረው	-12438
▁ኢትዮጵያዊ	-12439
▁የሚሆነውን	-12440
▁የተረጋገጠ	-12441
▁decades	-12442
▁january	-12443
▁opening	-12444
▁primary	-12445
▁ኢየሩሳሌምን	-12446
▁indicate	-12447
▁acknowled	-12448
▁dedicated	-12449
▁circumcised	-12450
▁prostitution	-12451
▁representative	-12452
ህ፤	-12453
ሞታ	-12454
ሾቹ	-12455
ቂቃ	-12456
ቃሽ	-12457
ከበ	-12458
ጋባ	-12459
ግቡ	-12460
ላማዊ	-12461
ምልኮ	-12462
ምሯል	-12463
ባትህ	-12464
ክፈል	-12465
ዘውን	-12466
ጸልዩ	-12467
▁ለድ	-12468
▁ማብ	-12469
▁በሠ	-12470
▁ተዛ	-12471
▁ያጠ	-12472
▁sup	-12473
▁ሙስና	-12474
▁ሥራው	-12475
▁በመር	-12476
▁በበኩ	-12477
▁አብያ	-12478
▁ከሌላ	-12479
▁ወደቀ	-12480
▁ዘውታ	-12481
▁ይመራ	-12482
▁ፍጡር	-12483
itors	-12484
▁deut	-12485
▁excl	-12486
▁wept	-12487
▁ልጆችና	-12488
▁መካፈል	-12489
▁ሥራውን	-12490
▁ሰምተው	-12491
▁በተለየ	-12492
▁በአስቸ	-12493
▁ተፈጻሚ	-12494
▁ኤልሳእ	-12495
▁የሚመስ	-12496
▁የተሠሩ	-12497
▁የተረገ	-12498
▁የእውነ	-12499
▁የጥፋት	-12500
indeed	-12501
▁forms	-12502
▁olive	-12503
▁pages	-12504
▁sixth	-12505
▁valid	-12506
▁zedek	-12507
▁ለመግደል	-12508
▁ተደርገው	-12509
▁አለው፡፡	-12510
▁የሚመጣው	-12511
▁የሚያሰኝ	-12512
▁የሚያውቅ	-12513
ocratic	-12514
▁advert	-12515
▁asleep	-12516
▁canada	-12517
▁closed	-12518
▁በውስጣቸው	-12519
▁የሚያሳየው	-12520
▁የአካባቢው	-12521
▁crossed	-12522
▁selfish	-12523
▁torment	-12524
▁goodness	-12525
▁እንዲያገለግሉ	-12526
▁የሚንጸባረቅበት	-12527
▁continually	-12528
ሚን	-12529
ምሌ	-12530
ስቲ	-12531
በቱ	-12532
ባጭ	-12533
ናቅ	-12534
ከኝ	-12535
ዎን	-12536
ላጦስ	-12537
ረጋጋ	-12538
ሮቹም	-12539
ሻቸው	-12540
ታንን	-12541
ቶችህ	-12542
▁ለግ	-12543
▁ይጣ	-12544
iday	-12545
▁ለጌታ	-12546
▁ሙሴና	-12547
▁ቁልፍ	-12548
▁ተጠም	-12549
▁ተጠር	-12550
▁ያደር	-12551
▁ይፈር	-12552
▁ዶላር	-12553
▁load	-12554
▁rend	-12555
▁vari	-12556
▁መልሰው	-12557
▁ምድራዊ	-12558
▁ሳይቀር	-12559
▁በነገሠ	-12560
▁ባዘዘው	-12561
▁ተናጋሪ	-12562
▁ነበር፥	-12563
▁አለው፤	-12564
▁አራዊት	-12565
▁አሸናፊ	-12566
▁እርስዋ	-12567
▁ዘንድ፥	-12568
▁የሚረዳ	-12569
▁ግንባታ	-12570
▁ጥቅሞች	-12571
orough	-12572
▁judas	-12573
▁sharp	-12574
▁ለመቀጠል	-12575
▁ልጆቻችን	-12576
▁በመቀጠል	-12577
▁ተቆጣጣሪ	-12578
▁ቴክኖሎጂ	-12579
▁የሰይጣን	-12580
▁income	-12581
▁obeyed	-12582
▁የተትረፈረ	-12583
▁የአትክልት	-12584
▁selected	-12585
▁chieftain	-12586
▁glorified	-12587
▁observers	-12588
▁stretched	-12589
▁expressions	-12590
ቋር	-12591
ችና	-12592
ነር	-12593
ናፍ	-12594
ኖክ	-12595
ገበ	-12596
ፈቱ	-12597
erv	-12598
ሎችና	-12599
ርዳታ	-12600
ናትን	-12601
ገዛት	-12602
▁ለሳ	-12603
▁ኢዩ	-12604
▁ኦር	-12605
▁ፍቺ	-12606
umpt	-12607
uous	-12608
ባቸውና	-12609
▁miz	-12610
▁ልምድ	-12611
▁መመለ	-12612
▁መጻሕ	-12613
▁በልብ	-12614
▁በይፋ	-12615
▁አስራ	-12616
▁አንዲ	-12617
▁እናቱ	-12618
▁እጄን	-12619
▁ከምና	-12620
▁ውበት	-12621
▁rein	-12622
▁wail	-12623
▁wars	-12624
▁womb	-12625
▁ለፍርድ	-12626
▁መክፈል	-12627
▁ሲገልጽ	-12628
▁አስረድ	-12629
▁እያደገ	-12630
▁ዘጸአት	-12631
▁የተባሉ	-12632
▁የወጣው	-12633
▁የግብፅ	-12634
▁ፍልስጤ	-12635
icious	-12636
▁jesse	-12637
▁መለኮታዊ	-12638
▁ማስታወስ	-12639
▁ማስታወሻ	-12640
▁የሰዎችን	-12641
▁ህይወታችን	-12642
▁በየትኛውም	-12643
▁enforce	-12644
▁notwith	-12645
▁penalty	-12646
▁serpent	-12647
▁የክርስቲያን	-12648
▁breaking	-12649
▁joyfully	-12650
▁previous	-12651
▁stronger	-12652
▁zedekiah	-12653
▁functions	-12654
▁እስራኤላውያንም	-12655
▁applicable	-12656
▁courageous	-12657
▁notwithstanding	-12658
ሯት	-12659
ሰዱ	-12660
እይ	-12661
ወራ	-12662
ese	-12663
rig	-12664
ሉትም	-12665
ላህን	-12666
ሎንቄ	-12667
ን፡፡	-12668
ያል።	-12669
ገረዙ	-12670
ጠይቁ	-12671
▁ለዓ	-12672
▁ሰፍ	-12673
▁ፌዴ	-12674
what	-12675
ላቸው፤	-12676
ማችንን	-12677
ዴቅያስ	-12678
▁wra	-12679
▁ሕጋዊ	-12680
▁ማዳን	-12681
▁በተፈ	-12682
▁ቢሮው	-12683
▁ነቀፋ	-12684
▁አስቴ	-12685
▁አውሬ	-12686
▁እስማ	-12687
▁የተሸ	-12688
▁ይይዛ	-12689
▁ግዙፍ	-12690
▁ፈጣን	-12691
orted	-12692
ባቶቻቸው	-12693
ችኋለሁ፤	-12694
▁bath	-12695
▁bind	-12696
▁busy	-12697
▁isol	-12698
▁lawy	-12699
▁till	-12700
▁ሚክያስ	-12701
▁ሶስተኛ	-12702
▁በህዝብ	-12703
▁በእግር	-12704
▁ተሳትፎ	-12705
▁አልነበ	-12706
▁አልአዛ	-12707
▁ከህዝቡ	-12708
▁ወንድሙ	-12709
▁የክልል	-12710
▁ያገኘው	-12711
encies	-12712
▁cedar	-12713
▁deser	-12714
▁ለመግባት	-12715
▁ለራሳቸው	-12716
▁አነጋገር	-12717
▁አደረጉ።	-12718
▁ኢዮሳፍጥ	-12719
▁እንፈልጋ	-12720
▁የሚበልጥ	-12721
▁ይኖራል።	-12722
▁ዮርዳኖስ	-12723
▁corner	-12724
▁degree	-12725
▁እንዲቀጥል	-12726
▁እንዲያውቁ	-12727
▁attacks	-12728
▁captain	-12729
▁citizen	-12730
▁numbers	-12731
▁victims	-12732
▁zebulun	-12733
▁critical	-12734
▁በእርግጠኝነት	-12735
▁alongside	-12736
▁vengeance	-12737
በመ	-12738
ንቁ	-12739
ዛባ	-12740
ፋሪ	-12741
ፎቹ	-12742
omi	-12743
pah	-12744
rus	-12745
መጡት	-12746
ቃል፤	-12747
እለት	-12748
▁58	-12749
▁66	-12750
▁72	-12751
▁አዩ	-12752
▁ይሠ	-12753
▁ፈጸ	-12754
ታችንም	-12755
ችኋቸው	-12756
ገልጸው	-12757
▁lau	-12758
▁መአዛ	-12759
▁ሳጥን	-12760
▁በአደ	-12761
▁ትልቁ	-12762
▁አባላ	-12763
▁አጥን	-12764
▁እርሾ	-12765
▁እባብ	-12766
▁እንባ	-12767
▁ወላጅ	-12768
▁ዘመዶ	-12769
▁የውኃ	-12770
▁ያላት	-12771
▁ጉልበ	-12772
▁ጊዜ፣	-12773
▁ጌታው	-12774
rench	-12775
ስትራሊያ	-12776
ከናውነው	-12777
▁dign	-12778
▁mold	-12779
▁መጸለይ	-12780
▁ሰፈሩ።	-12781
▁ቀጥተኛ	-12782
▁አብራም	-12783
▁እነማን	-12784
▁ወስደህ	-12785
▁ዘዳግም	-12786
▁የመኖር	-12787
▁thick	-12788
▁tremb	-12789
▁መድኃኒት	-12790
▁አቅኚዎች	-12791
▁አገልጋዮ	-12792
▁የሚያነሳ	-12793
▁active	-12794
▁invite	-12795
▁openly	-12796
▁relate	-12797
▁square	-12798
▁ተናግራለች	-12799
▁elderly	-12800
▁እንደማይችል	-12801
▁እያንዳንዱን	-12802
▁capacity	-12803
▁magazine	-12804
▁announced	-12805
▁stumbling	-12806
▁submitted	-12807
▁thessalon	-12808
▁tradition	-12809
▁philistine	-12810
▁rebellious	-12811
▁unexpected	-12812
ረህ	-12813
ረጉ	-12814
ኦክ	-12815
ጻፍ	-12816
haz	-12817
ላለሁ	-12818
ምንቱ	-12819
ሶቹን	-12820
ነገሩ	-12821
ጠባበ	-12822
▁ez	-12823
▁ላባ	-12824
▁መሐ	-12825
▁በፋ	-12826
▁ተረ	-12827
▁አኪ	-12828
▁ከጋ	-12829
▁የሐ	-12830
▁ጠረ	-12831
▁ፍለ	-12832
pper	-12833
ሰቢያው	-12834
ሶቻቸው	-12835
ታውያን	-12836
ዳቸውን	-12837
▁oct	-12838
▁sow	-12839
▁በተቀ	-12840
▁የደም	-12841
▁ይሰራ	-12842
▁ደቂቃ	-12843
▁asks	-12844
▁braz	-12845
▁hail	-12846
▁torn	-12847
▁tyre	-12848
▁ለጉባኤ	-12849
▁ሌሎችም	-12850
▁መምራት	-12851
▁ያስወግ	-12852
▁ይደረግ	-12853
▁dealt	-12854
▁laugh	-12855
▁mixed	-12856
▁mourn	-12857
▁reass	-12858
▁rings	-12859
▁ለመፍታት	-12860
▁ብለዋል።	-12861
▁flight	-12862
▁merely	-12863
▁prompt	-12864
▁unique	-12865
▁values	-12866
▁መስተዳድር	-12867
▁እስራኤልም	-12868
▁የተደረገው	-12869
▁donkeys	-12870
▁tidings	-12871
▁የሚገልጸውን	-12872
▁register	-12873
▁commander	-12874
▁background	-12875
ae	-12876
ሴር	-12877
በጥ	-12878
▁0	-12879
ለትም	-12880
ሩንም	-12881
ሱትን	-12882
ሻሻያ	-12883
ፈርድ	-12884
▁ሊታ	-12885
▁በዲ	-12886
▁በጣ	-12887
fast	-12888
rers	-12889
ያእቆብ	-12890
▁rat	-12891
▁ሂሳብ	-12892
▁ሐሴት	-12893
▁መጡ።	-12894
▁በላዩ	-12895
▁በምእ	-12896
▁በተራ	-12897
▁አምል	-12898
▁አሳስ	-12899
▁ዓቃቤ	-12900
▁የእነ	-12901
▁ያካት	-12902
ipped	-12903
ብረተሰብ	-12904
ቶቻችሁን	-12905
▁boaz	-12906
▁cain	-12907
▁sale	-12908
▁ማድረጉ	-12909
▁ራሳችን	-12910
▁ርዝመቱ	-12911
▁ተዘጋጅ	-12912
▁ተገለጠ	-12913
▁ከአንቺ	-12914
▁ከእርሷ	-12915
▁የተስፋ	-12916
▁ይገኛሉ	-12917
▁ፈርኦን	-12918
otions	-12919
▁speed	-12920
▁መንገዱን	-12921
▁በተቃራኒ	-12922
▁ተአምራት	-12923
▁ያለምንም	-12924
▁helper	-12925
▁widely	-12926
▁እንዲያገኝ	-12927
▁የነበራቸው	-12928
▁happens	-12929
▁thyself	-12930
▁ባለሥልጣናት	-12931
▁european	-12932
▁rebelled	-12933
▁thorough	-12934
▁በየቤተሰባቸው	-12935
▁entrusted	-12936
▁paragraphs	-12937
▁unfaithful	-12938
ራይ	-12939
ዝያ	-12940
ያዩ	-12941
▁ኛ	-12942
ikh	-12943
ለኞች	-12944
መልኩ	-12945
ራለሁ	-12946
ቡባዊ	-12947
ብሪካ	-12948
ንቀቅ	-12949
ከለክ	-12950
ግመተ	-12951
▁ለዮ	-12952
▁ሩቅ	-12953
▁ቆም	-12954
▁አሜ	-12955
▁ያፈ	-12956
adok	-12957
ሎቻቸው	-12958
ሰበስባ	-12959
እነዚህ	-12960
▁abd	-12961
▁ሕጎች	-12962
▁መለያ	-12963
▁መገኘ	-12964
▁አውቃ	-12965
▁ከወን	-12966
▁ወረዳ	-12967
▁የኾኑ	-12968
▁የጊዜ	-12969
▁የግብ	-12970
elled	-12971
▁corp	-12972
▁doth	-12973
▁prey	-12974
▁remn	-12975
▁symp	-12976
▁tres	-12977
▁ልጆችህ	-12978
▁መብራት	-12979
▁ስኬታማ	-12980
▁በነገሰ	-12981
▁አልሆነ	-12982
▁አትፍራ	-12983
▁አካላዊ	-12984
▁አክሎም	-12985
▁ከዳዊት	-12986
▁ጠየቀው	-12987
▁ጥንካሬ	-12988
▁ጽሁፋዊ	-12989
▁dress	-12990
▁iniqu	-12991
▁persu	-12992
▁sinai	-12993
▁ለነበሩት	-12994
▁መረጃዎች	-12995
▁በገንዘብ	-12996
▁ነገራቸው	-12997
▁coloss	-12998
▁driven	-12999
▁shared	-13000
▁sprink	-13001
▁እንደሚሉት	-13002
▁እንደሚኖር	-13003
▁discreet	-13004
▁disgrace	-13005
▁kingship	-13006
▁reaching	-13007
▁trespass	-13008
▁companion	-13009
▁worshipped	-13010
▁accountable	-13011
▁disbelieved	-13012
▁persecution	-13013
ልታ	-13014
ርቱ	-13015
ብዓ	-13016
ዘኛ	-13017
ጎት	-13018
nah	-13019
uck	-13020
መሳሰ	-13021
ሞንን	-13022
ረናል	-13023
ቆጠሩ	-13024
በት፤	-13025
ጨነቁ	-13026
▁ul	-13027
▁ሕጉ	-13028
▁ሴራ	-13029
agon	-13030
gest	-13031
iant	-13032
ober	-13033
መላለስ	-13034
በረሰቡ	-13035
▁...	-13036
▁ሚስዮ	-13037
▁በሮም	-13038
▁ባልተ	-13039
▁ነው፣	-13040
▁አክሊ	-13041
▁እድል	-13042
▁የመድ	-13043
▁ፊቱን	-13044
ented	-13045
zarus	-13046
▁beer	-13047
▁emph	-13048
▁gibe	-13049
▁lame	-13050
▁shil	-13051
▁በሕዝብ	-13052
▁ተወላጅ	-13053
▁ከአንዱ	-13054
▁የሃሳብ	-13055
▁የሚቃጠ	-13056
▁የምናሴ	-13057
▁የእነሱ	-13058
▁ያገኛሉ	-13059
▁teeth	-13060
▁twice	-13061
▁zadok	-13062
▁ማመልከቻ	-13063
▁አስተዋይ	-13064
▁አስታወቀ	-13065
▁አዎንታዊ	-13066
▁locust	-13067
▁ዮርዳኖስን	-13068
▁encount	-13069
▁lazarus	-13070
▁sustain	-13071
▁attended	-13072
▁contains	-13073
▁describe	-13074
▁domestic	-13075
▁gradually	-13076
▁reminders	-13077
▁devastated	-13078
▁acknowledge	-13079
▁strengthening	-13080
መች	-13081
ሾም	-13082
ቆጥ	-13083
ቻት	-13084
ያኔ	-13085
ዶክ	-13086
ፕላ	-13087
ሪካዊ	-13088
ዳሮች	-13089
ፎችን	-13090
▁56	-13091
▁ምል	-13092
▁ስጥ	-13093
▁ከከ	-13094
resp	-13095
ster	-13096
ስተምር	-13097
ደርግም	-13098
ገራቸው	-13099
ጣቸው።	-13100
▁fit	-13101
▁ሳይን	-13102
▁ሶርያ	-13103
▁በመው	-13104
▁በፍታ	-13105
▁ተነሱ	-13106
▁ተጠመ	-13107
▁ኢራቅ	-13108
▁እያሳ	-13109
▁ውርሻ	-13110
▁ውስጠ	-13111
▁የመሰ	-13112
▁ይሁኑ	-13113
▁ገደለ	-13114
iders	-13115
▁poll	-13116
▁porn	-13117
▁subd	-13118
▁ምሁራን	-13119
▁ሰዎችና	-13120
▁በትዳር	-13121
▁በነገሩ	-13122
▁ኢኮኖሚ	-13123
▁ዘዴዎች	-13124
▁የተቋቋ	-13125
▁ያምናሉ	-13126
▁ድንገት	-13127
▁ጥንቃቄ	-13128
▁adorn	-13129
▁naomi	-13130
▁steal	-13131
▁ማረጋገጥ	-13132
▁በቁጥጥር	-13133
▁ተሰበሰቡ	-13134
▁አጥብቀው	-13135
▁የብልግና	-13136
▁የድንጋይ	-13137
▁የጥብቅና	-13138
▁ዩናይትድ	-13139
▁flying	-13140
▁france	-13141
▁multip	-13142
▁philip	-13143
▁prostr	-13144
▁እፈልጋለሁ	-13145
▁drawing	-13146
▁finding	-13147
▁repurch	-13148
▁strange	-13149
▁እንደነበረው	-13150
▁የሚያሳዝነው	-13151
▁generous	-13152
▁pleasant	-13153
▁dependent	-13154
▁eritreans	-13155
▁threshing	-13156
▁uncleanness	-13157
ማሌ	-13158
ሹን	-13159
ዘና	-13160
ዝሩ	-13161
ዱሱ	-13162
ዳሄ	-13163
▁ፅ	-13164
con	-13165
ሥራቅ	-13166
ችው።	-13167
ደራጀ	-13168
ጠረው	-13169
▁ለደ	-13170
▁በሆ	-13171
▁እጽ	-13172
▁ዘሁ	-13173
hens	-13174
term	-13175
ከራከሩ	-13176
ጠይቀው	-13177
▁anc	-13178
▁yea	-13179
▁ልጅህ	-13180
▁መጠቀ	-13181
▁ስፍር	-13182
▁በሕዝ	-13183
▁ተነሣ	-13184
▁ችሏል	-13185
▁ነፍሰ	-13186
▁ኖሬጋ	-13187
▁አላስ	-13188
▁አይተ	-13189
▁እንዱ	-13190
▁የኮሚ	-13191
▁ይኖራ	-13192
▁ይዘህ	-13193
▁ይገኝ	-13194
▁ደፋር	-13195
▁ፍትሕ	-13196
▁chem	-13197
▁furn	-13198
▁unse	-13199
▁upro	-13200
▁ለማዳን	-13201
▁ልጆች፣	-13202
▁መባዎች	-13203
▁በህዝቡ	-13204
▁በነበሩ	-13205
▁በጥበብ	-13206
▁አቅርቦ	-13207
▁አይሰማ	-13208
▁ወላጆቼ	-13209
▁ውድድር	-13210
▁የሳኦል	-13211
▁ዳዊትና	-13212
▁ፍጥነት	-13213
▁2,000	-13214
▁asher	-13215
▁begat	-13216
▁doctr	-13217
▁korea	-13218
▁males	-13219
▁merch	-13220
▁toler	-13221
▁weigh	-13222
▁በመናገር	-13223
▁በደግነት	-13224
▁ዝርያዎች	-13225
▁የሚጠቁም	-13226
▁የፍጥረት	-13227
▁ፕሮፌሰር	-13228
▁offers	-13229
▁quoted	-13230
▁salary	-13231
▁ለማጠናከር	-13232
▁ከዮርዳኖስ	-13233
▁የሚያስገኝ	-13234
▁circumc	-13235
▁harmful	-13236
▁intense	-13237
▁trusted	-13238
▁በእውነተኛው	-13239
▁emotions	-13240
▁solution	-13241
▁indicated	-13242
▁prisoners	-13243
▁pronounce	-13244
▁requested	-13245
▁technical	-13246
▁washington	-13247
▁uncircumcised	-13248
መቻ	-13249
ሙ፤	-13250
ተኩ	-13251
ጋብ	-13252
ፋፋ	-13253
እንዲ	-13254
ጣል፤	-13255
▁ማጣ	-13256
▁በሻ	-13257
▁ከድ	-13258
▁ጮኸ	-13259
etic	-13260
teen	-13261
መዛዘን	-13262
ገለገሉ	-13263
▁192	-13264
▁jez	-13265
▁መብራ	-13266
▁ሲሳይ	-13267
▁ሲያዩ	-13268
▁በቃሉ	-13269
▁በጥን	-13270
▁ተገዙ	-13271
▁አትስ	-13272
▁ከተሞ	-13273
▁ወዴት	-13274
▁የስጋ	-13275
▁የተራ	-13276
▁ገለጸ	-13277
▁ፈታኝ	-13278
amber	-13279
inite	-13280
▁jehu	-13281
▁wage	-13282
▁መምጣት	-13283
▁ተስማሚ	-13284
▁የእርሻ	-13285
▁የፈጠረ	-13286
▁ይላሉ።	-13287
▁ገብቷል	-13288
▁ጥርጣሬ	-13289
▁cance	-13290
▁lords	-13291
▁በህይወቴ	-13292
▁በተገቢው	-13293
▁ትንቢቶች	-13294
▁ከከተማዋ	-13295
▁የተባሉት	-13296
▁የተወለደ	-13297
oration	-13298
▁hereby	-13299
▁palace	-13300
▁recomp	-13301
▁reform	-13302
▁ልጆቻችሁን	-13303
▁አግባብነት	-13304
▁britain	-13305
▁farmers	-13306
▁october	-13307
▁planted	-13308
▁shortly	-13309
▁ተመራማሪዎች	-13310
▁አደርጋለሁ።	-13311
▁miracles	-13312
▁prominent	-13313
▁rebellion	-13314
▁thanksgiving	-13315
50	-13316
መዱ	-13317
ሳቁ	-13318
ዘነ	-13319
ጥሯ	-13320
tha	-13321
ሳል፤	-13322
ስተዋ	-13323
ዳለሁ	-13324
ገለጽ	-13325
ጠልም	-13326
ጠውን	-13327
ጸባር	-13328
▁mu	-13329
▁በቸ	-13330
▁ብና	-13331
▁ተዓ	-13332
▁ወግ	-13333
pers	-13334
ገናኛው	-13335
ጠቅላይ	-13336
▁obv	-13337
▁ሀሳብ	-13338
▁ሊገድ	-13339
▁ልብህ	-13340
▁ስንዴ	-13341
▁ተመስ	-13342
▁አካዝ	-13343
▁እሁድ	-13344
▁ዘጠኝ	-13345
▁የሙሴ	-13346
▁ደሴት	-13347
▁ጠራር	-13348
▁grat	-13349
▁heir	-13350
▁neut	-13351
▁snow	-13352
▁መለወጥ	-13353
▁መልሶ።	-13354
▁ሰላምን	-13355
▁በወርቅ	-13356
▁በጥሞና	-13357
▁ቢያጋጥ	-13358
▁አስከት	-13359
▁አዳምና	-13360
▁ወንድሜ	-13361
▁ውስጣዊ	-13362
▁የሚጣል	-13363
▁የአዲስ	-13364
▁የወረዳ	-13365
▁abish	-13366
▁analy	-13367
▁forty	-13368
▁hears	-13369
▁newly	-13370
▁titus	-13371
▁ungod	-13372
▁ለማዳበር	-13373
▁በስብከቱ	-13374
▁በእንጨት	-13375
▁እናድርግ	-13376
▁ወንድሙን	-13377
▁ያዕቆብም	-13378
▁ይፈልጋሉ	-13379
▁defile	-13380
▁gibeah	-13381
▁capable	-13382
▁disobey	-13383
▁mineral	-13384
▁outcome	-13385
▁parable	-13386
▁remnant	-13387
▁syrians	-13388
▁የተወሰነውን	-13389
▁probably	-13390
▁terrible	-13391
▁describes	-13392
▁divisions	-13393
▁forbidden	-13394
▁potential	-13395
▁procedures	-13396
▁proclaimed	-13397
▁prophecies	-13398
▁prostitute	-13399
▁theocratic	-13400
▁thereafter	-13401
ሊፒ	-13402
ቅላ	-13403
ቅያ	-13404
ካሚ	-13405
arr	-13406
bru	-13407
era	-13408
ሩት።	-13409
ስታን	-13410
እቢያ	-13411
▁ልበ	-13412
▁መት	-13413
▁መከ	-13414
▁ምጽ	-13415
▁ከጉ	-13416
▁ዓም	-13417
acco	-13418
ንግተን	-13419
▁22,	-13420
▁23.	-13421
▁koh	-13422
▁መፈጸ	-13423
▁ቀኖች	-13424
▁በተባ	-13425
▁አጭር	-13426
▁ዜናዊ	-13427
▁የወጡ	-13428
▁የፈረ	-13429
▁afar	-13430
▁amen	-13431
▁drop	-13432
▁site	-13433
▁ማክበር	-13434
▁ሥልጠና	-13435
▁ሰራተኛ	-13436
▁ሰዎቹም	-13437
▁ሲናገሩ	-13438
▁በአንጻ	-13439
▁በጥልቅ	-13440
▁እስትን	-13441
▁ኾናችሁ	-13442
▁የፍትህ	-13443
▁souls	-13444
▁tired	-13445
▁verse	-13446
▁zemen	-13447
▁መናፍስት	-13448
▁ሰጥቶናል	-13449
▁በመውሰድ	-13450
▁በሰማርያ	-13451
▁ትሆናለች	-13452
▁አላውቅም	-13453
▁እንዳይወ	-13454
▁የኃጢአት	-13455
▁የአምላካ	-13456
▁compar	-13457
▁decree	-13458
▁embass	-13459
▁errors	-13460
▁prince	-13461
▁summer	-13462
▁እንዲመለስ	-13463
▁እንግሊዝኛ	-13464
▁compare	-13465
▁distant	-13466
▁firearm	-13467
▁plunder	-13468
▁tobacco	-13469
▁zealous	-13470
▁applying	-13471
▁obtained	-13472
▁psalmist	-13473
▁captivity	-13474
▁safeguard	-13475
▁contribute	-13476
▁determination	-13477
ለዩ	-13478
ርቁ	-13479
ሳራ	-13480
ሽታ	-13481
በዝ	-13482
ች፥	-13483
ኖቼ	-13484
ፎር	-13485
iny	-13486
oon	-13487
she	-13488
ቀደም	-13489
በላሸ	-13490
በርክ	-13491
ብናል	-13492
ኚነት	-13493
ወልድ	-13494
ይዝራ	-13495
ጃችሁ	-13496
ገርም	-13497
▁57	-13498
▁ምሰ	-13499
▁ሞኝ	-13500
▁የጨ	-13501
▁ያጋ	-13502
መሰክር	-13503
▁28,	-13504
▁lit	-13505
▁ምናሴ	-13506
▁ባለፈ	-13507
▁አብራ	-13508
icing	-13509
inity	-13510
ከናውኑት	-13511
ደረጋችሁ	-13512
▁blow	-13513
▁hitt	-13514
▁rent	-13515
▁ሦስተኛ	-13516
▁በኃይል	-13517
▁ባልሆነ	-13518
▁ታቀርባ	-13519
▁ከከተማ	-13520
▁የሚታይ	-13521
▁የቻለው	-13522
▁የእንስ	-13523
▁ይሁን፤	-13524
▁enoch	-13525
▁hired	-13526
▁lions	-13527
▁notes	-13528
▁ረድቶኛል	-13529
▁በቅድሚያ	-13530
▁አሳልፈው	-13531
▁አስተያየ	-13532
▁አንቀጾች	-13533
▁የላቸውም	-13534
▁ይላሉ፡፡	-13535
▁ፍልስጥኤ	-13536
▁ፖለቲካዊ	-13537
▁caring	-13538
▁divide	-13539
▁elimin	-13540
▁ለእናንተም	-13541
▁captive	-13542
▁identity	-13543
▁relation	-13544
▁highlight	-13545
▁beneficial	-13546
▁chronicles	-13547
▁compensation	-13548
▁interpretation	-13549
fl	-13550
kn	-13551
ርጅ	-13552
ብቆ	-13553
ቧን	-13554
ጆቼ	-13555
ግድ	-13556
ጫው	-13557
ፌደ	-13558
ሃለን	-13559
ልጣኑ	-13560
ራረብ	-13561
ነበብ	-13562
ነዋል	-13563
ዳል፤	-13564
▁az	-13565
▁ርኩ	-13566
▁ቀኑ	-13567
▁ተዘ	-13568
▁ከሲ	-13569
▁ከዳ	-13570
hand	-13571
raft	-13572
time	-13573
▁der	-13574
▁nic	-13575
▁መዋእ	-13576
▁ሲሄዱ	-13577
▁በረሃ	-13578
▁በአም	-13579
▁በደም	-13580
▁አስቦ	-13581
▁እውን	-13582
▁ከጠላ	-13583
▁የባሕ	-13584
▁የኖሩ	-13585
▁የዜና	-13586
▁የጠየ	-13587
▁ደሙን	-13588
▁ጠብቅ	-13589
▁ጠይቅ	-13590
angel	-13591
▁1999	-13592
▁blaz	-13593
▁embr	-13594
▁size	-13595
▁tort	-13596
▁ለአላህ	-13597
▁ልማዶች	-13598
▁ስምምነ	-13599
▁አልዓዛ	-13600
▁አስከፊ	-13601
▁አስጠን	-13602
▁አደርገ	-13603
▁እንደታ	-13604
▁ከሶስት	-13605
▁የባዕድ	-13606
▁ያቀረበ	-13607
brance	-13608
የእስራኤል	-13609
▁bount	-13610
▁brain	-13611
▁frust	-13612
▁revol	-13613
▁ተገነዘብ	-13614
▁ነበርና።	-13615
▁አስታውሱ	-13616
▁እስማኤል	-13617
▁ያመናችሁ	-13618
▁ይደረጋል	-13619
▁handle	-13620
▁impart	-13621
▁samson	-13622
▁እንዳይሆን	-13623
▁earthqu	-13624
▁fleshly	-13625
▁mothers	-13626
▁neglect	-13627
▁እንችላለን።	-13628
▁believes	-13629
▁compared	-13630
▁hardship	-13631
▁inclined	-13632
▁starting	-13633
▁companies	-13634
▁patiently	-13635
▁ambassador	-13636
▁supporting	-13637
▁considering	-13638
▁philippians	-13639
▁significant	-13640
ምሬ	-13641
ረደ	-13642
ሽው	-13643
ተቱ	-13644
ቶቿ	-13645
ኗል	-13646
ዛን	-13647
ለየት	-13648
መታት	-13649
ምባሲ	-13650
ረኛው	-13651
ታንም	-13652
ቶታል	-13653
ና፡፡	-13654
▁ai	-13655
▁ሰኔ	-13656
▁ኦዲ	-13657
bing	-13658
book	-13659
from	-13660
otes	-13661
reel	-13662
ላስይስ	-13663
ርሳቤህ	-13664
ሰባችሁ	-13665
ነጋገሩ	-13666
ዎቻችሁ	-13667
▁bib	-13668
▁org	-13669
▁ለሆነ	-13670
▁ሲወጣ	-13671
▁ሲያይ	-13672
▁ቀንደ	-13673
▁በባለ	-13674
▁ተመር	-13675
▁ኃያል	-13676
▁አንገ	-13677
▁ግብፃ	-13678
▁ጠብቁ	-13679
▁ፍለጋ	-13680
▁hunt	-13681
▁mord	-13682
▁prec	-13683
▁ring	-13684
▁tour	-13685
▁ማርቆስ	-13686
▁ማገልገ	-13687
▁በተሻለ	-13688
▁አሉታዊ	-13689
▁ከእሱም	-13690
▁የሚጠብ	-13691
▁የምክር	-13692
▁ዮሴፍን	-13693
▁ጠቦቶች	-13694
▁looks	-13695
▁parli	-13696
▁ህዝቅኤል	-13697
▁ህይወቴን	-13698
▁ለመጠቀም	-13699
▁ስፍራዎች	-13700
▁የተጻፈው	-13701
▁ጋዜጠኞች	-13702
▁gained	-13703
▁hospit	-13704
▁seated	-13705
▁ሰጥቷቸዋል	-13706
▁አይችልም።	-13707
▁የፍልስጤም	-13708
▁customs	-13709
▁haughty	-13710
▁israeli	-13711
▁michael	-13712
▁sayings	-13713
▁constant	-13714
▁jehoiada	-13715
▁rulership	-13716
▁faithfully	-13717
▁researchers	-13718
▁entertainment	-13719
ma	-13720
ቢቱ	-13721
ሁዳን	-13722
ሉት።	-13723
መናል	-13724
ርያስ	-13725
ኒስቴ	-13726
ካፈሉ	-13727
▁ሃዘ	-13728
▁ለቁ	-13729
char	-13730
onia	-13731
when	-13732
ላእክት	-13733
ስፈላጊ	-13734
ባችኋል	-13735
ታቸውና	-13736
▁ሄደህ	-13737
▁ለመዋ	-13738
▁በቀኝ	-13739
▁እጅህ	-13740
▁እጆች	-13741
▁ከኋላ	-13742
▁ይከፍ	-13743
▁ዮርክ	-13744
▁ጊዜና	-13745
▁ጨዋታ	-13746
▁alle	-13747
▁impl	-13748
▁ለጊዜው	-13749
▁ሌላኛው	-13750
▁ማደሪያ	-13751
▁ሴትየዋ	-13752
▁በክልሉ	-13753
▁ቢሆኑም	-13754
▁አስበው	-13755
▁አስገኝ	-13756
▁አይኖች	-13757
▁ውርደት	-13758
▁ዓይኖች	-13759
▁ያለህን	-13760
▁ይጠብቅ	-13761
ricult	-13762
▁multi	-13763
▁sends	-13764
▁እንዲችል	-13765
▁እንዲወጡ	-13766
▁የሚያበቃ	-13767
▁የሚያውቁ	-13768
▁የማይችሉ	-13769
▁የተፈጠረ	-13770
inating	-13771
▁amazed	-13772
▁emphas	-13773
▁engine	-13774
▁expand	-13775
▁gibeon	-13776
▁kohath	-13777
▁modest	-13778
▁በዩናይትድ	-13779
▁የእንግሊዝ	-13780
▁achieve	-13781
▁confess	-13782
▁desired	-13783
▁jezreel	-13784
▁utterly	-13785
▁wronged	-13786
▁በስብሰባዎች	-13787
▁ከነአናውያን	-13788
▁የሚያገለግል	-13789
▁የተትረፈረፈ	-13790
▁conclude	-13791
▁politics	-13792
▁evidently	-13793
▁overseers	-13794
▁instruction	-13795
ረጅ	-13796
በዙ	-13797
ኩራ	-13798
ግሪ	-13799
ግሮ	-13800
ጽሐ	-13801
ana	-13802
ems	-13803
ike	-13804
mel	-13805
ለቱም	-13806
ለንም	-13807
ሜናዊ	-13808
ኛልና	-13809
ከፋፍ	-13810
ይዘው	-13811
ግጦሽ	-13812
ፈቀድ	-13813
ፉትን	-13814
▁om	-13815
▁መቻ	-13816
▁ሰል	-13817
▁በቡ	-13818
▁በፓ	-13819
▁ኤን	-13820
▁የሬ	-13821
መሳሰል	-13822
ራሲያዊ	-13823
▁ለሆኑ	-13824
▁ተረድ	-13825
▁ተከፍ	-13826
▁ነህና	-13827
▁አገኙ	-13828
▁እሷን	-13829
▁ከሩቅ	-13830
▁ክንፍ	-13831
▁ክፍለ	-13832
▁ጠራው	-13833
▁bere	-13834
▁obsc	-13835
▁መምህር	-13836
▁ስምህን	-13837
▁ንጉሡን	-13838
▁አለኝ።	-13839
▁ከመሆኑ	-13840
▁ወንዞች	-13841
▁ወደፊቱ	-13842
▁የመዳብ	-13843
▁ይወርዳ	-13844
▁blame	-13845
▁cruel	-13846
▁exult	-13847
▁ስራዎችን	-13848
▁በሁለቱም	-13849
▁ተነሳስቶ	-13850
▁አይሁዳዊ	-13851
▁የምትኖር	-13852
▁ይጠይቃል	-13853
▁ፈተናዎች	-13854
▁marvel	-13855
▁sprout	-13856
▁status	-13857
▁በመንግሥት	-13858
▁እንደምንችል	-13859
▁agricult	-13860
▁competent	-13861
▁essential	-13862
▁execution	-13863
▁በእስራኤላውያን	-13864
▁missionary	-13865
▁examination	-13866
ሂዱ	-13867
ቆማ	-13868
ጅት	-13869
ጸጋ	-13870
asc	-13871
ለወጠ	-13872
ላዎች	-13873
ሞንም	-13874
ሩበት	-13875
ራል፣	-13876
ሽንም	-13877
ቧል።	-13878
ተኮር	-13879
ዕቢያ	-13880
ዳብር	-13881
ጋንዳ	-13882
ጸለይ	-13883
▁ልቦ	-13884
▁ሞቱ	-13885
▁ቅጥ	-13886
▁እመ	-13887
▁ይዛ	-13888
▁ግም	-13889
▁ጸሐ	-13890
aned	-13891
ኀንነት	-13892
ኖረውም	-13893
ገለገል	-13894
ግብግብ	-13895
▁144	-13896
▁ሳንቲ	-13897
▁በዓይ	-13898
▁አንዷ	-13899
▁የሌላ	-13900
▁ይሰጡ	-13901
▁ጋብቻ	-13902
▁ጌታህ	-13903
ሰባቸውን	-13904
በረታታት	-13905
▁2000	-13906
▁2011	-13907
▁blog	-13908
▁nile	-13909
▁star	-13910
▁በትክክ	-13911
▁በንጉሱ	-13912
▁በእስር	-13913
▁ተከትሎ	-13914
▁ክፋትን	-13915
▁የሚሄድ	-13916
▁የሚሠራ	-13917
▁የማወቅ	-13918
▁የተፈረ	-13919
bruary	-13920
▁adopt	-13921
▁dread	-13922
▁frank	-13923
▁ruled	-13924
▁sidon	-13925
▁upper	-13926
▁ለመግዛት	-13927
▁አገላለጽ	-13928
▁እርስዋም	-13929
▁እነሱንም	-13930
▁የሚያምን	-13931
▁የተናገር	-13932
▁ያብራራል	-13933
▁ድንኳኑን	-13934
▁mordec	-13935
▁organs	-13936
▁savior	-13937
▁spokes	-13938
▁talked	-13939
▁thread	-13940
▁ለማስፈጸም	-13941
▁በተደረገው	-13942
▁እንዲፈጸም	-13943
▁applied	-13944
▁attract	-13945
▁chamber	-13946
▁complex	-13947
▁experts	-13948
▁playing	-13949
▁stubborn	-13950
▁israelite	-13951
▁challenging	-13952
▁transferred	-13953
▁opportunities	-13954
ት፣	-13955
ደቡ	-13956
ድሞ	-13957
ፈቅ	-13958
ህነት	-13959
ላለን	-13960
ቀጥሉ	-13961
ቦቹን	-13962
ኝም።	-13963
ያዘው	-13964
▁ማራ	-13965
▁ከጭ	-13966
opes	-13967
ፍታሌም	-13968
▁ሌላም	-13969
▁ስንል	-13970
▁በንጹ	-13971
▁አልታ	-13972
▁እንጨ	-13973
▁እወዳ	-13974
▁የሠሩ	-13975
▁ያመነ	-13976
▁ያሳየ	-13977
▁ያወድ	-13978
cloth	-13979
ላቸዋል።	-13980
ቸዋል፡፡	-13981
ንቀሳቀሱ	-13982
▁ለንጉሡ	-13983
▁ምሥራች	-13984
▁ቀንዶች	-13985
▁በባሕር	-13986
▁በንግድ	-13987
▁ቤታቸው	-13988
▁ተመለስ	-13989
▁ተወዳጅ	-13990
▁አሮንም	-13991
▁የሚወጡ	-13992
▁ይቀመጣ	-13993
▁ይባላል	-13994
▁ጽህፈት	-13995
▁brief	-13996
▁depos	-13997
▁ለራሳችሁ	-13998
▁ማሰላሰል	-13999
▁ማብራሪያ	-14000
▁ሰባኪዎች	-14001
▁በእነዚያ	-14002
▁የምንችል	-14003
▁carved	-14004
▁hatred	-14005
▁resent	-14006
▁sunday	-14007
▁truths	-14008
▁መሆናችንን	-14009
▁በማገልገል	-14010
▁ባለስልጣኑ	-14011
▁የመጨረሻው	-14012
▁network	-14013
▁records	-14014
▁መመሪያዎችን	-14015
▁december	-14016
▁february	-14017
▁produces	-14018
▁sentence	-14019
▁summoned	-14020
▁accounting	-14021
▁meditating	-14022
▁scientific	-14023
▁surrounded	-14024
▁discernment	-14025
▁disobedient	-14026
▁remembrance	-14027
rs	-14028
ya	-14029
ሱና	-14030
ነድ	-14031
ኤን	-14032
ጠህ	-14033
199	-14034
ረትን	-14035
ሮንን	-14036
ሱበት	-14037
ፈረድ	-14038
ፕሎማ	-14039
▁ሆስ	-14040
▁ትታ	-14041
▁ከሸ	-14042
ሰላስል	-14043
ቶችንና	-14044
ወሰነው	-14045
ገንባት	-14046
▁ble	-14047
▁log	-14048
▁unp	-14049
▁ላለማ	-14050
▁ተጽፎ	-14051
▁አሠራ	-14052
▁አናው	-14053
▁አዳሪ	-14054
▁እያየ	-14055
▁ወደእ	-14056
▁ዘመኑ	-14057
▁የታመ	-14058
▁የአገ	-14059
▁ያለህ	-14060
▁ገለል	-14061
ingly	-14062
known	-14063
▁asia	-14064
▁dict	-14065
▁nove	-14066
▁ሰንበት	-14067
▁በክብር	-14068
▁አመስግ	-14069
▁አመጸኛ	-14070
▁አጥብቆ	-14071
▁የክብር	-14072
▁bears	-14073
▁check	-14074
▁fifty	-14075
▁swift	-14076
▁telev	-14077
▁ከተሞችን	-14078
▁የተናገረ	-14079
▁plants	-14080
▁worlds	-14081
▁አለመሆኑን	-14082
▁grounds	-14083
▁pitched	-14084
▁springs	-14085
▁tongues	-14086
▁trumpet	-14087
▁የሚናገረውን	-14088
▁የወንድማማች	-14089
▁contempt	-14090
▁rejoiced	-14091
▁shouting	-14092
▁australia	-14093
▁belonging	-14094
▁equipment	-14095
▁preparing	-14096
▁invitation	-14097
▁satisfying	-14098
▁contributed	-14099
▁conventions	-14100
bo	-14101
ረታ	-14102
ቆዩ	-14103
ድግ	-14104
ግስ	-14105
ጎበ	-14106
ጎቹ	-14107
ጣጣ	-14108
ሪያው	-14109
ሮችና	-14110
▁ሸሹ	-14111
▁በጆ	-14112
▁የሾ	-14113
abas	-14114
ላችንን	-14115
ብርሃን	-14116
ገኝበት	-14117
ጊልያድ	-14118
▁fly	-14119
▁nin	-14120
▁ህዝቤ	-14121
▁ምሁር	-14122
▁ረሃብ	-14123
▁ሸንጎ	-14124
▁ተኩል	-14125
▁ትኖራ	-14126
▁ነገረ	-14127
▁አውሎ	-14128
▁ይቀር	-14129
▁ግብጻ	-14130
▁ግቦች	-14131
ሰጣቸውን	-14132
ደረሰበት	-14133
▁caes	-14134
▁huge	-14135
▁legs	-14136
▁slew	-14137
▁trip	-14138
▁መወጣት	-14139
▁ምሥክር	-14140
▁ምእራብ	-14141
▁ሰብሳቢ	-14142
▁በራእይ	-14143
▁በተቻለ	-14144
▁አዘጋጀ	-14145
▁አዲሱን	-14146
▁ወንጌል	-14147
▁ውስጥም	-14148
▁ዘመናዊ	-14149
▁የተመሠ	-14150
arters	-14151
ኦክራሲያዊ	-14152
▁cares	-14153
▁invis	-14154
▁joint	-14155
▁ruins	-14156
▁ማወቃችን	-14157
▁ተከታዮቹ	-14158
▁አለቆችና	-14159
▁አያውቁም	-14160
▁ከዋክብት	-14161
▁የድንኳን	-14162
ክርስቲያናዊ	-14163
▁career	-14164
▁crying	-14165
▁issach	-14166
▁sheikh	-14167
▁target	-14168
▁ሉአላዊነት	-14169
▁በሚመለከት	-14170
▁ወንድሞችን	-14171
▁acquire	-14172
▁alcohol	-14173
▁suppose	-14174
▁executed	-14175
▁multiply	-14176
▁november	-14177
▁treacher	-14178
▁celebrate	-14179
▁sackcloth	-14180
▁vineyards	-14181
▁identified	-14182
▁parliament	-14183
▁settlements	-14184
40	-14185
ለለ	-14186
ሞተ	-14187
በድ	-14188
▁ኳ	-14189
bab	-14190
iar	-14191
ርላማ	-14192
ሻለቃ	-14193
ቀበት	-14194
ባሉት	-14195
ታለል	-14196
ወለድ	-14197
ፈርስ	-14198
▁ly	-14199
▁ሂደ	-14200
▁ታደ	-14201
▁ኖር	-14202
▁ኾነ	-14203
▁ዕዳ	-14204
▁የሊ	-14205
▁ጭፍ	-14206
▁ፋይ	-14207
ahab	-14208
iate	-14209
ላለፊያ	-14210
ማሪዎቹ	-14211
አለሁ።	-14212
ገኙበት	-14213
ጣል፡፡	-14214
▁eag	-14215
▁ምስጢ	-14216
▁አርባ	-14217
▁ከባለ	-14218
▁ውሃው	-14219
▁የሚዘ	-14220
▁የተሾ	-14221
▁የእን	-14222
▁የክፉ	-14223
▁ይለያ	-14224
▁ገዳይ	-14225
abled	-14226
▁drug	-14227
▁gers	-14228
▁perf	-14229
▁sear	-14230
▁ልባችሁ	-14231
▁መዋእል	-14232
▁ምንድር	-14233
▁ነፃነት	-14234
▁አልሰማ	-14235
▁አዘጋጁ	-14236
▁አይተው	-14237
▁ከመጠን	-14238
▁የውዳሴ	-14239
▁ደንቦች	-14240
▁hates	-14241
▁metal	-14242
▁phone	-14243
▁siege	-14244
▁ለእነሱም	-14245
▁መርከቦች	-14246
▁በመፈጸም	-14247
▁አምላክ፣	-14248
▁ከነግጦሽ	-14249
▁የይሁዳን	-14250
▁chance	-14251
▁dreams	-14252
▁martha	-14253
▁remark	-14254
▁ለማስተማር	-14255
▁ቅርንጫፎች	-14256
▁የሚገልጸው	-14257
▁partial	-14258
▁wearing	-14259
▁worldly	-14260
▁የምናደርገው	-14261
▁barnabas	-14262
▁issachar	-14263
▁relating	-14264
▁የመጀመሪያዎቹ	-14265
▁comforted	-14266
▁imprisoned	-14267
▁የሚያስፈልጋቸውን	-14268
▁unrighteousness	-14269
ሳር	-14270
ሴይ	-14271
ሸነ	-14272
ዳይ	-14273
ፈህ	-14274
ፋኑ	-14275
600	-14276
oom	-14277
ምና።	-14278
ብንን	-14279
ተረጎ	-14280
ከሰቱ	-14281
ዋለን	-14282
ግባባ	-14283
ፈፀም	-14284
ፏቸው	-14285
▁ቸል	-14286
▁ኖኅ	-14287
▁ዋሻ	-14288
▁የቱ	-14289
▁ገድ	-14290
▁ግባ	-14291
ints	-14292
rets	-14293
▁dew	-14294
▁vac	-14295
▁ህንጻ	-14296
▁ሆነች	-14297
▁ቦታው	-14298
▁ተከተ	-14299
▁አዳኝ	-14300
▁አገሩ	-14301
▁ኤሳው	-14302
▁ከማሳ	-14303
▁ከሰጠ	-14304
▁ኩራት	-14305
▁ኮሚሽ	-14306
▁የሚዋ	-14307
▁የቆየ	-14308
▁ያልታ	-14309
▁ጉድጓ	-14310
▁ጨካኝ	-14311
apers	-14312
osity	-14313
ሉዓላዊው	-14314
ደርግበት	-14315
▁baby	-14316
▁pest	-14317
▁tues	-14318
▁vows	-14319
▁ለውጦች	-14320
▁ሊኖረው	-14321
▁መዝናኛ	-14322
▁መገመት	-14323
▁ማጥፋት	-14324
▁በእኔና	-14325
▁ነገሩን	-14326
▁አስፈል	-14327
▁አብሮት	-14328
▁አይመስ	-14329
▁አግኝቶ	-14330
▁አፈጻጸ	-14331
▁እዚያም	-14332
▁ከሌሎቹ	-14333
▁ዕቃዎች	-14334
▁የሌሎች	-14335
▁የሚነሱ	-14336
▁የምርት	-14337
▁የደቡብ	-14338
▁ፍትሃዊ	-14339
ounded	-14340
▁balak	-14341
▁jebus	-14342
▁solid	-14343
▁ሃሳቦችን	-14344
▁ለእነዚያ	-14345
▁በአገልጋ	-14346
▁እንውሰድ	-14347
▁እንዲቆይ	-14348
▁ገንዘቡን	-14349
ictions	-14350
▁burial	-14351
▁contem	-14352
▁nobody	-14353
▁pardon	-14354
▁prefer	-14355
▁ለኢትዮጵያ	-14356
▁አማልክትን	-14357
▁anymore	-14358
▁reveals	-14359
▁satisfy	-14360
▁secular	-14361
▁spanish	-14362
▁stories	-14363
▁touches	-14364
▁tuesday	-14365
▁volunte	-14366
▁attacked	-14367
▁iniquity	-14368
▁mordecai	-14369
▁movement	-14370
▁purposes	-14371
▁anointing	-14372
▁interview	-14373
▁television	-14374
▁differences	-14375
▁recognition	-14376
▁supplication	-14377
10	-14378
uk	-14379
ሬም	-14380
ሰህ	-14381
ሱ፤	-14382
ሻን	-14383
ክሎ	-14384
ዞር	-14385
key	-14386
ስተህ	-14387
ባቢያ	-14388
አል።	-14389
ወግድ	-14390
ዘረዘ	-14391
ዳል።	-14392
ጃችን	-14393
ጠብቃ	-14394
ፈረው	-14395
▁ሰአ	-14396
▁ሰዓ	-14397
▁ዘሌ	-14398
▁የኑ	-14399
host	-14400
ረጋጋት	-14401
ሰራበት	-14402
▁rus	-14403
▁sis	-14404
▁vig	-14405
▁ለመመ	-14406
▁ለባለ	-14407
▁መጣ፤	-14408
▁ሲመጡ	-14409
▁በመጥ	-14410
▁በነፃ	-14411
▁በአማ	-14412
▁አልኩ	-14413
▁እገዛ	-14414
▁የሞት	-14415
▁የተን	-14416
▁የኖረ	-14417
▁ያተኮ	-14418
▁ገልጾ	-14419
▁ፈራጅ	-14420
▁ፈቀቅ	-14421
▁ፍቅሩ	-14422
place	-14423
ናገራቸው	-14424
ፈልጉበት	-14425
▁azar	-14426
▁harp	-14427
▁leah	-14428
▁pent	-14429
▁rabb	-14430
▁slay	-14431
▁ለሕዝብ	-14432
▁ለማንም	-14433
▁መለየት	-14434
▁ሰዎቹን	-14435
▁ሳይንስ	-14436
▁ቀንበር	-14437
▁በዙፋኑ	-14438
▁በጉጉት	-14439
▁ተእለት	-14440
▁አክአብ	-14441
▁እየመጣ	-14442
▁ከቅርብ	-14443
▁ከወሩም	-14444
▁የመሆን	-14445
▁የሚሉት	-14446
▁የሚመጡ	-14447
▁ያገኛል	-14448
▁ደሴቶች	-14449
▁ጀመረ።	-14450
▁ጥበብን	-14451
▁girls	-14452
▁grasp	-14453
▁panel	-14454
▁sport	-14455
▁ለማድረስ	-14456
▁በልባቸው	-14457
▁አይቻልም	-14458
▁ኢዮስያስ	-14459
▁እያደረግ	-14460
▁ከፈለግን	-14461
▁የኤሌክት	-14462
▁ጳውሎስን	-14463
▁altars	-14464
▁arrows	-14465
▁permit	-14466
▁propag	-14467
▁stands	-14468
▁ባለትዳሮች	-14469
▁testify	-14470
▁visions	-14471
▁withdra	-14472
▁ትክክለኛውን	-14473
▁dealings	-14474
▁entering	-14475
▁reminder	-14476
▁የመጀመሪያውን	-14477
▁impressed	-14478
▁returning	-14479
▁surprised	-14480
▁pornography	-14481
ሁ፥	-14482
ልቆ	-14483
ሜት	-14484
ስያ	-14485
ንሃ	-14486
ኬት	-14487
ኳኑ	-14488
ዕኖ	-14489
ጌል	-14490
how	-14491
ህናቱ	-14492
ሉንም	-14493
ሞትም	-14494
ንጉስ	-14495
ኾነው	-14496
ወስን	-14497
ወጡት	-14498
ዝዳን	-14499
ያያዥ	-14500
ደግፍ	-14501
ጣል።	-14502
ጦችን	-14503
▁ሸማ	-14504
▁ከጨ	-14505
ሰበሰበ	-14506
ሰብአዊ	-14507
ወዳደር	-14508
ዋውያኑ	-14509
ፈልጉት	-14510
▁ለመጠ	-14511
▁ሠራዊ	-14512
▁ሰው፣	-14513
▁በራሴ	-14514
▁በኾነ	-14515
▁በገና	-14516
▁ችሎት	-14517
▁እሱና	-14518
▁ከውጭ	-14519
▁ከደቀ	-14520
▁ካለን	-14521
▁ካገኘ	-14522
▁ወርዱ	-14523
▁የሚለ	-14524
▁የተጠ	-14525
▁የአክ	-14526
ensed	-14527
ገለግለው	-14528
▁1991	-14529
▁enth	-14530
▁gaza	-14531
▁puts	-14532
▁spot	-14533
▁በሌላው	-14534
▁ተፈጥሮ	-14535
hemiah	-14536
▁depri	-14537
▁dying	-14538
▁ተአምራዊ	-14539
▁አልችልም	-14540
▁የስብከት	-14541
▁የቀረበው	-14542
▁ይሰጠዋል	-14543
▁allows	-14544
▁device	-14545
▁grapes	-14546
▁holder	-14547
▁online	-14548
▁ripped	-14549
▁writer	-14550
▁በመቀጠልም	-14551
▁አባቶቻችን	-14552
▁azariah	-14553
▁minutes	-14554
▁rebuild	-14555
▁enduring	-14556
▁fruitful	-14557
▁function	-14558
▁hospital	-14559
▁nehemiah	-14560
▁planning	-14561
▁reconcil	-14562
▁christmas	-14563
▁invisible	-14564
▁agreements	-14565
▁regardless	-14566
▁disciplinary	-14567
ha	-14568
ማጸ	-14569
ሦር	-14570
ራስ	-14571
ቂቅ	-14572
ተኝ	-14573
ነቀ	-14574
ዳች	-14575
ገግ	-14576
asa	-14577
ላቀል	-14578
ሙበት	-14579
ቀመጣ	-14580
ታደግ	-14581
ናትና	-14582
ግሥት	-14583
▁61	-14584
▁ለጉ	-14585
▁ቆየ	-14586
▁ተዉ	-14587
▁ታጥ	-14588
▁ያዩ	-14589
▁ged	-14590
▁መለሱ	-14591
▁መባና	-14592
▁በልዩ	-14593
▁በሚታ	-14594
▁በስም	-14595
▁በነፍ	-14596
▁በጊዜ	-14597
▁በፈረ	-14598
▁እየቀ	-14599
▁ወድቆ	-14600
▁የመመ	-14601
▁የገደ	-14602
▁ይሞክ	-14603
oring	-14604
▁aver	-14605
▁drag	-14606
▁fold	-14607
▁mail	-14608
▁mock	-14609
▁pick	-14610
▁urge	-14611
▁ለማሰብ	-14612
▁መንገዱ	-14613
▁በሃይል	-14614
▁በተሟላ	-14615
▁በእምነ	-14616
▁በደመና	-14617
▁ባለቤቱ	-14618
▁ብሏል።	-14619
▁ተረጋግ	-14620
▁እኔንም	-14621
▁ከምንም	-14622
▁የሚውል	-14623
▁የተቀበ	-14624
▁ghost	-14625
▁korah	-14626
▁lamps	-14627
▁maced	-14628
▁rooms	-14629
▁sched	-14630
▁taunt	-14631
▁አላደረገ	-14632
▁አስተዳደ	-14633
▁እንዳገኘ	-14634
▁እያደረገ	-14635
▁ወንድምህ	-14636
▁የሚያደር	-14637
▁የሚጠይቅ	-14638
▁የተፈቀደ	-14639
▁የትውልድ	-14640
▁የወደፊት	-14641
▁የያዕቆብ	-14642
▁የፈጠረው	-14643
▁distin	-14644
▁explan	-14645
▁gilgal	-14646
▁pedest	-14647
▁shimei	-14648
▁thence	-14649
▁thorns	-14650
▁እንዲያስተ	-14651
▁ዘውታሪዎች	-14652
▁aggress	-14653
▁fearing	-14654
▁opinion	-14655
▁pursued	-14656
▁systems	-14657
▁ungodly	-14658
▁wonders	-14659
▁arrogant	-14660
▁belonged	-14661
▁province	-14662
▁punished	-14663
▁declaring	-14664
▁qualified	-14665
▁respected	-14666
▁suspended	-14667
▁directorate	-14668
▁sacrificing	-14669
▁intelligence	-14670
ስሊ	-14671
ሸጉ	-14672
ብቶ	-14673
ኮን	-14674
ውሉ	-14675
ያጭ	-14676
ይዞ	-14677
ጣራ	-14678
ጥላ	-14679
ፉ።	-14680
፤የ	-14681
ህምያ	-14682
ለትና	-14683
ብራሂ	-14684
ትን፣	-14685
ኩራብ	-14686
ጽዮን	-14687
▁62	-14688
▁ax	-14689
▁vo	-14690
▁ለቆ	-14691
▁ቀሚ	-14692
▁በሂ	-14693
▁ዓሣ	-14694
▁ጥራ	-14695
▁ጽላ	-14696
▁ፍሩ	-14697
▁ፍራ	-14698
fire	-14699
tell	-14700
ላቸውና	-14701
ባቸው፤	-14702
ጠራጠር	-14703
▁bis	-14704
▁መራቅ	-14705
▁መሬቷ	-14706
▁ሳይወ	-14707
▁በጠላ	-14708
▁አዎ፣	-14709
▁አይና	-14710
▁ወርዶ	-14711
▁የመስ	-14712
▁ጠብቆ	-14713
uters	-14714
▁2002	-14715
▁2014	-14716
▁bury	-14717
▁clim	-14718
▁doll	-14719
▁virt	-14720
▁ምዕራብ	-14721
▁በአባቱ	-14722
▁አለባበ	-14723
▁አስችሎ	-14724
▁ከሌላው	-14725
▁የመነጨ	-14726
▁ይመለከ	-14727
▁drove	-14728
▁fails	-14729
▁poles	-14730
▁ለወንዶች	-14731
▁ሊያደርጉ	-14732
▁መሠረታዊ	-14733
▁ሳሙኤልም	-14734
▁ሳምንታት	-14735
▁ሴዴቅያስ	-14736
▁በየትኞቹ	-14737
▁እንዲያው	-14738
▁የለውም።	-14739
▁የቅዱሳን	-14740
▁የተፈጸመ	-14741
▁excess	-14742
▁export	-14743
▁fright	-14744
▁horror	-14745
▁socket	-14746
▁አምላክህን	-14747
▁እንድትችል	-14748
▁ወንድሞቹን	-14749
▁ይመስልሃል	-14750
▁amharic	-14751
▁cleanse	-14752
▁elected	-14753
▁evangel	-14754
▁factors	-14755
▁flowing	-14756
▁jehoash	-14757
▁lacking	-14758
▁raising	-14759
▁recalls	-14760
▁retreat	-14761
▁በህይወታቸው	-14762
▁በመካከላችን	-14763
▁እላችኋለሁ፥	-14764
▁surprise	-14765
▁assembled	-14766
▁excellent	-14767
▁seriously	-14768
▁accompanied	-14769
▁adversaries	-14770
▁illustrations	-14771
ለፈ	-14772
ባሆ	-14773
ብያ	-14774
ፈጥ	-14775
has	-14776
ምናን	-14777
ሰማህ	-14778
ብኛል	-14779
ናገለ	-14780
ከማቸ	-14781
ክሰኞ	-14782
ጧል።	-14783
▁ሰጡ	-14784
▁ቢስ	-14785
▁ባያ	-14786
▁ድራ	-14787
ሳቸውም	-14788
ታችሁም	-14789
ከባከብ	-14790
ዋርያው	-14791
▁asc	-14792
▁dog	-14793
▁mob	-14794
▁nav	-14795
▁veh	-14796
▁ለስራ	-14797
▁ማርያ	-14798
▁ሰጪው	-14799
▁ሳንቃ	-14800
▁ቅሬታ	-14801
▁በልጁ	-14802
▁በድር	-14803
▁ኤርት	-14804
▁እትም	-14805
▁እንቢ	-14806
▁ከገጽ	-14807
▁የማል	-14808
▁የተጻ	-14809
▁የዳዊ	-14810
▁ይለው	-14811
enawi	-14812
rates	-14813
▁cens	-14814
▁tram	-14815
▁ህብረት	-14816
▁ለህዝብ	-14817
▁መሥራት	-14818
▁ማንንም	-14819
▁በሕይወ	-14820
▁አለች።	-14821
▁ኢያሱን	-14822
▁እንዲተ	-14823
▁እንዳሳ	-14824
▁ከአሁን	-14825
▁የግንባ	-14826
ishing	-14827
▁facil	-14828
▁fresh	-14829
▁habit	-14830
▁simpl	-14831
▁ለኢየሱስ	-14832
▁ምሳሌያዊ	-14833
▁ባለቤቶች	-14834
▁ባደረገው	-14835
▁ትእግስት	-14836
▁አደባባይ	-14837
▁ከአባቶቹ	-14838
▁የአእምሮ	-14839
▁የእነሱን	-14840
▁ይወስዳል	-14841
▁ዳይሬክቶ	-14842
▁beaten	-14843
▁dining	-14844
▁በአገልግሎ	-14845
▁አዘውትረን	-14846
inations	-14847
▁couples	-14848
▁killing	-14849
▁speaker	-14850
▁towards	-14851
▁striking	-14852
▁associates	-14853
▁continuing	-14854
▁fatherless	-14855
▁oppression	-14856
ህኒ	-14857
ቀች	-14858
ቄዶ	-14859
ቆሮ	-14860
ተሩ	-14861
ቻው	-14862
ናክ	-14863
እሱ	-14864
ከስ	-14865
ጎብ	-14866
መናን	-14867
ማል፤	-14868
ምንም	-14869
ቀደው	-14870
ባበቅ	-14871
ኗቸው	-14872
ያህ፣	-14873
ዳችን	-14874
ገቢያ	-14875
▁ታን	-14876
▁ጆን	-14877
unal	-14878
ምሯቸው	-14879
ወዳቸው	-14880
▁150	-14881
▁jar	-14882
▁nun	-14883
▁pag	-14884
▁ለመቅ	-14885
▁ርብቃ	-14886
▁አራቱ	-14887
▁አሸዋ	-14888
▁ኢያቡ	-14889
▁ኢዮዓ	-14890
▁ክምር	-14891
▁የማዕ	-14892
▁የተካ	-14893
▁የኤል	-14894
▁ይከብ	-14895
▁ጉብኝ	-14896
▁ፈሪሃ	-14897
ashes	-14898
ታቸውንም	-14899
እንግዲህ	-14900
▁musl	-14901
▁quit	-14902
▁wipe	-14903
▁መታዘዝ	-14904
▁ሳይሆኑ	-14905
▁ቀሪዎች	-14906
▁በባህር	-14907
▁እናገራ	-14908
▁ከወርቅ	-14909
▁ዘላለም	-14910
▁ጥቅልል	-14911
▁ፈቃዱን	-14912
▁admit	-14913
▁emper	-14914
▁jonah	-14915
▁surre	-14916
▁ሕዝቅያስ	-14917
▁ሰውየውም	-14918
▁ተጠንቀቁ	-14919
▁አስጠንቅ	-14920
▁እንዲነግ	-14921
▁የተላለፈ	-14922
utation	-14923
▁concub	-14924
▁profit	-14925
▁አግኝተዋል	-14926
▁እንደሌለው	-14927
▁እንደሚያሳ	-14928
▁ያስፈልጋል	-14929
▁edition	-14930
▁falling	-14931
▁helpful	-14932
▁highest	-14933
▁involve	-14934
▁legally	-14935
▁splendor	-14936
▁subjects	-14937
▁በየአባቶቻቸው	-14938
▁efficient	-14939
▁gratitude	-14940
▁የእግዚአብሔርም	-14941
▁expectation	-14942
▁transgression	-14943
ሐይ	-14944
ምሳ	-14945
ርግ	-14946
ቆና	-14947
ቋጦ	-14948
ኩህ	-14949
ዛዥ	-14950
ፋቱ	-14951
ips	-14952
sem	-14953
uce	-14954
ታዊው	-14955
ድረው	-14956
ገራሚ	-14957
ግርህ	-14958
ጸባረ	-14959
▁ሀገ	-14960
▁መኖ	-14961
▁ሮብ	-14962
▁ቅመ	-14963
▁ከሴ	-14964
▁የቂ	-14965
▁ጌድ	-14966
▁ጳጳ	-14967
chan	-14968
ሯቸዋል	-14969
▁fet	-14970
▁ሠራ።	-14971
▁በለው	-14972
▁በአር	-14973
▁ቢኖሩ	-14974
▁ብልሹ	-14975
▁ተካፋ	-14976
▁ተፈጽ	-14977
▁አቤል	-14978
▁እንዴ	-14979
▁ዕድል	-14980
▁ይሄድ	-14981
▁ጠረጴ	-14982
▁ጥርስ	-14983
agers	-14984
arian	-14985
inged	-14986
▁adon	-14987
▁calf	-14988
▁fiam	-14989
▁meek	-14990
▁pity	-14991
▁መድረክ	-14992
▁መግለጽ	-14993
▁በአስተ	-14994
▁በዘመኑ	-14995
▁ተደረገ	-14996
▁ትብብር	-14997
▁ንጉሱም	-14998
▁አድራሻ	-14999
▁ጀመረች	-15000
▁ጀርመን	-15001
▁absol	-15002
▁catch	-15003
▁cubit	-15004
▁dried	-15005
▁falls	-15006
▁fiery	-15007
▁ለመጠየቅ	-15008
▁ለጦርነት	-15009
▁መስፈርት	-15010
▁በቅዱሳን	-15011
▁በተራራው	-15012
▁በአእምሮ	-15013
▁በፊታቸው	-15014
▁አይደለህ	-15015
▁ዝግጅቶች	-15016
▁የሚያስች	-15017
▁የምትባል	-15018
▁የተዘጋጁ	-15019
▁ይጠቁማል	-15020
▁hoping	-15021
▁humbly	-15022
▁lovers	-15023
▁shiloh	-15024
▁መዛሙርቱም	-15025
▁ማድረጋቸው	-15026
▁አይደለሁም	-15027
▁የደህንነት	-15028
▁የፋይናንስ	-15029
▁ያደርገዋል	-15030
▁approve	-15031
▁dischar	-15032
▁fiameta	-15033
▁lifesty	-15034
▁የተመለከተው	-15035
▁nazareth	-15036
▁cleansing	-15037
▁collected	-15038
▁spreading	-15039
▁prescribed	-15040
▁witnessing	-15041
▁maintaining	-15042
ለቄ	-15043
ላና	-15044
ርጂ	-15045
ሾህ	-15046
ካኔ	-15047
ካይ	-15048
ያዛ	-15049
ጣጥ	-15050
asu	-15051
iff	-15052
ሀነም	-15053
ለደው	-15054
ሎንን	-15055
ማርኛ	-15056
ረተው	-15057
ኾኑት	-15058
ደለው	-15059
▁ሃያ	-15060
▁መዘ	-15061
▁ማይ	-15062
▁ሞክ	-15063
▁ተኛ	-15064
▁ተጥ	-15065
▁ከሐ	-15066
▁ኮን	-15067
▁ጽድ	-15068
ኖረውን	-15069
ጠባበቅ	-15070
▁gas	-15071
▁ner	-15072
▁ሆንክ	-15073
▁መዓዛ	-15074
▁ሸክላ	-15075
▁ቅድመ	-15076
▁በጋራ	-15077
▁ቢያስ	-15078
▁ናታን	-15079
▁እናስ	-15080
▁ወይፈ	-15081
▁ዘምሩ	-15082
▁የመረ	-15083
▁የኋላ	-15084
▁የአስ	-15085
▁ያቃጥ	-15086
▁ገልፀ	-15087
▁ገጽታ	-15088
▁ጉጉት	-15089
▁ግብረ	-15090
▁ጭንቀ	-15091
assie	-15092
▁airc	-15093
▁coat	-15094
▁eigh	-15095
▁fury	-15096
▁hann	-15097
▁murm	-15098
▁phot	-15099
▁sail	-15100
▁ህዝቡም	-15101
▁በአቅራ	-15102
▁በኩራት	-15103
▁በውስጥ	-15104
▁ተቀበረ	-15105
▁አስቴር	-15106
▁ከብቶች	-15107
▁ወይፈን	-15108
▁የሚሰነ	-15109
▁የሚበላ	-15110
▁የስኳር	-15111
ogical	-15112
▁5,000	-15113
▁abuse	-15114
▁italy	-15115
▁rahab	-15116
▁traff	-15117
▁በሌለበት	-15118
▁በትህትና	-15119
▁እሆናለሁ	-15120
▁የአገልጋ	-15121
▁defect	-15122
▁hunger	-15123
▁mature	-15124
▁winter	-15125
▁አስተዳዳሪ	-15126
▁ኢንዱስትሪ	-15127
▁እንዳዘዘው	-15128
▁የሚደረገው	-15129
▁colonel	-15130
▁embassy	-15131
▁princip	-15132
▁steward	-15133
▁streams	-15134
▁thereby	-15135
▁welcome	-15136
▁አደርጋለሁ፤	-15137
▁aircraft	-15138
▁arranged	-15139
▁balanced	-15140
▁cleansed	-15141
▁holiness	-15142
▁presumpt	-15143
▁publicly	-15144
▁greetings	-15145
▁lampstand	-15146
▁occasions	-15147
▁separated	-15148
▁suggested	-15149
▁wrongdoing	-15150
▁independent	-15151
▁accomplished	-15152
ሄም	-15153
▁ዔ	-15154
off	-15155
መልሱ	-15156
ረዳኝ	-15157
ራንስ	-15158
ነትህ	-15159
ገቡም	-15160
ፍራት	-15161
▁ft	-15162
▁መካ	-15163
▁ሰፋ	-15164
▁ባሳ	-15165
▁ብራ	-15166
▁አፌ	-15167
▁ይሳ	-15168
▁ፈን	-15169
ault	-15170
body	-15171
hods	-15172
ilah	-15173
ሄድበት	-15174
ታላችሁ	-15175
ነታችሁ	-15176
ኮኖሚያ	-15177
ጠናቀቅ	-15178
ጽናናት	-15179
▁ሃረግ	-15180
▁መደረ	-15181
▁ማለፍ	-15182
▁ሞተ።	-15183
▁ሰገደ	-15184
▁ሲሞት	-15185
▁ስምህ	-15186
▁አመቺ	-15187
▁አማሌ	-15188
▁ያውቁ	-15189
▁ደረቅ	-15190
▁ግፊት	-15191
▁ጭንቅ	-15192
adesh	-15193
akers	-15194
▁arom	-15195
▁cord	-15196
▁dawn	-15197
▁gath	-15198
▁prem	-15199
▁ለመማር	-15200
▁ሊኖረን	-15201
▁ባሪያህ	-15202
▁አለምን	-15203
▁አለኝ፦	-15204
▁አውታር	-15205
▁እውነቱ	-15206
▁ዘገባው	-15207
▁የገባው	-15208
▁የግብጽ	-15209
▁ግድግዳ	-15210
osheth	-15211
▁caleb	-15212
▁haman	-15213
▁roads	-15214
▁talks	-15215
▁video	-15216
▁winds	-15217
▁ለመከተል	-15218
▁በመካከል	-15219
▁በተለያየ	-15220
▁በጭንቀት	-15221
▁ባይሆንም	-15222
▁ትሆናለህ	-15223
▁አስከሬን	-15224
▁አስገራሚ	-15225
▁እንዲገባ	-15226
▁የሚቀርቡ	-15227
▁የሚጠበቅ	-15228
▁የሚጠብቅ	-15229
▁የምችለው	-15230
▁የአውራጃ	-15231
▁assess	-15232
▁claims	-15233
▁eighth	-15234
▁exists	-15235
▁exterm	-15236
▁philos	-15237
▁victim	-15238
▁በመሰዊያው	-15239
▁በማስገባት	-15240
▁ታደርጋለህ	-15241
▁እንደዚሁም	-15242
▁ያለማቋረጥ	-15243
▁initial	-15244
▁masters	-15245
▁methods	-15246
▁mistake	-15247
▁modesty	-15248
▁የሚያረጋግጥ	-15249
▁programs	-15250
▁writings	-15251
▁የሚያደርገውን	-15252
▁amendment	-15253
▁confusion	-15254
▁intention	-15255
▁controvers	-15256
▁overwhelmed	-15257
ye	-15258
ሌብ	-15259
ልዎ	-15260
ሹም	-15261
ቂቱ	-15262
ብጥ	-15263
ናማ	-15264
አዎ	-15265
ዋጥ	-15266
ዶና	-15267
ጡም	-15268
add	-15269
tle	-15270
ums	-15271
ላለስ	-15272
ራትም	-15273
ሮችም	-15274
ሽነት	-15275
በላው	-15276
ከበሩ	-15277
▁ze	-15278
▁ለሕ	-15279
▁ልከ	-15280
▁ሳም	-15281
▁ሳታ	-15282
▁ተች	-15283
▁ክሊ	-15284
▁ዳኛ	-15285
aint	-15286
ancy	-15287
ethe	-15288
lear	-15289
riel	-15290
ቻለሁ።	-15291
ወጣቸው	-15292
▁isl	-15293
▁ለሥራ	-15294
▁ሕዝቤ	-15295
▁መደብ	-15296
▁ሠላሳ	-15297
▁በመጠ	-15298
▁በምስ	-15299
▁ናትና	-15300
▁አድማ	-15301
▁እኛስ	-15302
▁ከወጣ	-15303
arrow	-15304
groom	-15305
▁seir	-15306
▁ህይወቴ	-15307
▁መለኪያ	-15308
▁መፍራት	-15309
▁በርናባ	-15310
▁በበላይ	-15311
▁በጥቂት	-15312
▁ተያያዥ	-15313
▁አያያዝ	-15314
▁ኤፍሬም	-15315
▁እያስተ	-15316
▁ክልላዊ	-15317
▁የሚገዛ	-15318
▁የተጠመ	-15319
▁ephah	-15320
▁plead	-15321
▁stray	-15322
▁waves	-15323
▁ለመውጋት	-15324
▁ለመፈለግ	-15325
▁ለማሻሻል	-15326
▁በተሰጠው	-15327
▁አመጸኞች	-15328
▁እሄዳለሁ	-15329
▁እንደማት	-15330
▁ይረዳሃል	-15331
▁criter	-15332
▁idolat	-15333
▁murder	-15334
▁reduce	-15335
▁turkey	-15336
▁unseen	-15337
▁በማናቸውም	-15338
▁በአቅኚነት	-15339
▁እንደሚሆኑ	-15340
▁ፊልጵስዩስ	-15341
▁choices	-15342
▁dealing	-15343
▁healing	-15344
▁injured	-15345
▁እንደሌላቸው	-15346
▁እንፈልጋለን	-15347
▁ይኖረዋል፡፡	-15348
▁perished	-15349
▁rewarded	-15350
▁secretly	-15351
▁wondered	-15352
gl	-15353
wa	-15354
ለሉ	-15355
ረፈ	-15356
ናቀ	-15357
ጀው	-15358
ጤን	-15359
ፍሩ	-15360
inc	-15361
መራው	-15362
ቂያው	-15363
ኛለሁ	-15364
ከፍል	-15365
ገንዘ	-15366
▁በሊ	-15367
▁በሮ	-15368
▁በኀ	-15369
▁እሺ	-15370
athy	-15371
ሯቸውን	-15372
ቄዶንያ	-15373
ኳቸውን	-15374
ዎቹንም	-15375
▁cof	-15376
▁mov	-15377
▁nur	-15378
▁መሃን	-15379
▁መራራ	-15380
▁መግባ	-15381
▁ቀረበ	-15382
▁በፍት	-15383
▁ተከራ	-15384
▁አለህ	-15385
▁አቀፉ	-15386
▁አዘነ	-15387
▁አፍስ	-15388
▁የሥጋ	-15389
▁የሰበ	-15390
▁የስም	-15391
▁የቤቱ	-15392
▁ይጠራ	-15393
▁ገመድ	-15394
athar	-15395
night	-15396
rated	-15397
ቸዋለህ።	-15398
▁aven	-15399
▁ለሆኑት	-15400
▁መስመር	-15401
▁በሰጡት	-15402
▁በሺዎች	-15403
▁በዘይት	-15404
▁ባሉበት	-15405
▁ተነሥቶ	-15406
▁እንደየ	-15407
▁የህይወ	-15408
▁ይበላሉ	-15409
▁ገበያው	-15410
▁ገዢዎች	-15411
▁ጥናቶች	-15412
atures	-15413
▁ashes	-15414
▁porch	-15415
▁sadly	-15416
▁scour	-15417
▁ሁለቱንም	-15418
▁መመስረት	-15419
▁ማህበራዊ	-15420
▁በማደሪያ	-15421
▁በቅንአት	-15422
▁በእጃቸው	-15423
▁ብዙዎችን	-15424
▁ተከትለው	-15425
▁ታዛቢዎች	-15426
▁እንደዚያ	-15427
▁እያደረጉ	-15428
▁ከተለያዩ	-15429
▁ከአምስት	-15430
▁የመስጠት	-15431
▁ጠባቂዎች	-15432
▁attain	-15433
▁convey	-15434
▁disple	-15435
▁paying	-15436
▁useful	-15437
▁ሃይማኖቶች	-15438
▁መዝሙራዊው	-15439
▁ተገነዘብኩ	-15440
▁እንደመሆኑ	-15441
▁እንደነዚህ	-15442
▁ይኖርብሃል	-15443
▁enterpr	-15444
▁grantor	-15445
▁humbled	-15446
▁reduced	-15447
▁routine	-15448
▁singers	-15449
▁absolute	-15450
▁allowing	-15451
▁diseases	-15452
▁extraord	-15453
▁jealousy	-15454
▁pursuing	-15455
▁replaced	-15456
▁touching	-15457
▁ያስፈልጋቸዋል	-15458
▁operation	-15459
▁sentenced	-15460
▁diplomatic	-15461
▁humiliated	-15462
▁discouraged	-15463
mi	-15464
ሰም	-15465
ዌን	-15466
ዝኑ	-15467
ጎን	-15468
bal	-15469
nor	-15470
org	-15471
ላል፣	-15472
መለሳ	-15473
ሙንም	-15474
ታሞች	-15475
ጾችን	-15476
▁ሬሳ	-15477
▁ሲታ	-15478
▁በኪ	-15479
▁ኮሌ	-15480
▁ድብ	-15481
▁ገር	-15482
▁ጨው	-15483
arit	-15484
▁hiv	-15485
▁ሄኖክ	-15486
▁ሌላን	-15487
▁ቀንድ	-15488
▁በተወ	-15489
▁አሳየ	-15490
▁ከደረ	-15491
▁ክቡር	-15492
▁ወጡ።	-15493
▁የከነ	-15494
▁ይዘት	-15495
▁ፈለግ	-15496
▁ፈልጎ	-15497
▁ፍላጻ	-15498
ኒስትሮች	-15499
ኮኖሚያዊ	-15500
▁onto	-15501
▁reed	-15502
▁ለሚገኙ	-15503
▁ስምዖን	-15504
▁በመያዝ	-15505
▁በነቢዩ	-15506
▁ንጉሱን	-15507
▁አማኞች	-15508
▁ከወይን	-15509
▁የተገባ	-15510
▁የፈለገ	-15511
▁ያስቀም	-15512
▁ይግባኝ	-15513
▁ጓደኛህ	-15514
fellow	-15515
ደርስባቸው	-15516
▁funds	-15517
▁griev	-15518
▁ramah	-15519
▁ሲያደርጉ	-15520
▁በትንሣኤ	-15521
▁ተስፋዎች	-15522
▁ከእምነት	-15523
▁የለብንም	-15524
▁የመንግሥ	-15525
▁coffee	-15526
▁dissem	-15527
▁double	-15528
▁empire	-15529
▁ethics	-15530
▁pulled	-15531
▁refers	-15532
▁serves	-15533
▁window	-15534
▁ለመገናኘት	-15535
▁አውሮፕላን	-15536
▁እንድናገኝ	-15537
▁ወንድሞች፣	-15538
▁የነበረችው	-15539
▁disting	-15540
▁endures	-15541
▁scatter	-15542
▁የተመዘገቡት	-15543
▁ዳይሬክቶሬት	-15544
▁electron	-15545
▁perceive	-15546
▁የሚያደርጉትን	-15547
▁cooperate	-15548
▁oppressed	-15549
▁pedestals	-15550
▁enterprises	-15551
▁obligations	-15552
▁oppositions	-15553
▁relationships	-15554
▁transgressions	-15555
''	-15556
ua	-15557
ሀብ	-15558
ሮሞ	-15559
ዜር	-15560
ደላ	-15561
ገየ	-15562
ጎል	-15563
ጠኛ	-15564
ፈኛ	-15565
lin	-15566
uph	-15567
xic	-15568
ኖቹን	-15569
ያዝያ	-15570
ገለጸ	-15571
ጡት።	-15572
▁64	-15573
▁ሸሸ	-15574
▁እቅ	-15575
▁ግመ	-15576
acul	-15577
ላችሁ፥	-15578
መስከር	-15579
ስብስብ	-15580
ውያኑም	-15581
ፌደራል	-15582
▁22.	-15583
▁caf	-15584
▁cow	-15585
▁oce	-15586
▁ለወላ	-15587
▁መቀጮ	-15588
▁ስጋዊ	-15589
▁በተሳ	-15590
▁ችሮታ	-15591
▁አምጡ	-15592
▁አስጨ	-15593
▁የአማ	-15594
▁ድሆች	-15595
▁ጎረቤ	-15596
eland	-15597
▁ahit	-15598
▁alex	-15599
▁issu	-15600
▁ሃያላን	-15601
▁ሄሮድስ	-15602
▁ህያዋን	-15603
▁ለምድር	-15604
▁መወሰን	-15605
▁መውደድ	-15606
▁ቅዱሳዊ	-15607
▁በረሃብ	-15608
▁ብንሆን	-15609
▁ታውቋል	-15610
▁አሮንና	-15611
▁ከሆነ፣	-15612
▁ክፉውን	-15613
▁ወንድና	-15614
▁የብቃት	-15615
▁የውስጥ	-15616
▁ይለኛል	-15617
▁ፕሮጀክ	-15618
itudes	-15619
▁latin	-15620
▁ለመፍጠር	-15621
▁ለማክበር	-15622
▁መጻሕፍት	-15623
▁በላያቸው	-15624
▁በአላህም	-15625
▁በአንቀጽ	-15626
▁በእነሱም	-15627
▁ቤተሰቡን	-15628
▁ተጠቅመው	-15629
▁ነበረች።	-15630
▁አባታችሁ	-15631
▁አታድርጉ	-15632
▁አንዳችሁ	-15633
▁እንዲጠፋ	-15634
▁የአውሮፓ	-15635
▁ጴጥሮስም	-15636
iveness	-15637
respond	-15638
▁barley	-15639
▁french	-15640
▁george	-15641
▁guards	-15642
▁mechan	-15643
▁series	-15644
▁shaken	-15645
▁skills	-15646
▁welcom	-15647
▁መልእክተኛ	-15648
▁ምሳሌዎችን	-15649
▁እነርሱም።	-15650
▁እንዲያድር	-15651
▁እንዳለብኝ	-15652
▁የሚያመለክ	-15653
▁miracul	-15654
▁statute	-15655
▁አይደለም፡፡	-15656
▁እንደሚፈልግ	-15657
▁ከመካከላቸው	-15658
▁ወንድሞቻቸው	-15659
▁incident	-15660
▁projects	-15661
▁survived	-15662
▁tribunal	-15663
▁dismissed	-15664
▁earnestly	-15665
▁የቴሌኮሙኒኬሽን	-15666
▁boundaries	-15667
▁chieftains	-15668
▁conviction	-15669
▁foolishness	-15670
▁outstanding	-15671
▁partnership	-15672
▁publication	-15673
▁disobedience	-15674
▁administrator	-15675
ረካ	-15676
ሬስ	-15677
በአ	-15678
ተተ	-15679
ነቷ	-15680
ን፤	-15681
ጥስ	-15682
equ	-15683
ros	-15684
ሁበት	-15685
ቦታው	-15686
ታደር	-15687
ቻልኩ	-15688
ንተው	-15689
ዱትን	-15690
▁ሳህ	-15691
▁ሽባ	-15692
▁ከቢ	-15693
▁ጥጃ	-15694
hamm	-15695
iary	-15696
ነበሩት	-15697
ኒስቴሩ	-15698
ዘገበው	-15699
ጣሪዎች	-15700
▁250	-15701
▁ftn	-15702
▁መናገ	-15703
▁መካከ	-15704
▁ምንጮ	-15705
▁ሩሲያ	-15706
▁ራሷን	-15707
▁በሰጠ	-15708
▁በተመ	-15709
▁ብልጽ	-15710
▁ተኝቶ	-15711
▁ተገዢ	-15712
▁ታይቶ	-15713
▁አንብ	-15714
▁እወቁ	-15715
▁ኮከብ	-15716
▁የሙሉ	-15717
▁ግን።	-15718
▁ጸልዩ	-15719
ፈልገንን	-15720
▁belt	-15721
▁chur	-15722
▁club	-15723
▁coal	-15724
▁mesh	-15725
▁outc	-15726
▁ላላቸው	-15727
▁ሌሊቱን	-15728
▁መሰኪያ	-15729
▁ማሸነፍ	-15730
▁ማክሰኞ	-15731
▁በአጭር	-15732
▁ቤቶችን	-15733
▁ኃያላን	-15734
▁ነበሩት	-15735
▁ነበርኩ	-15736
▁አለቀሰ	-15737
▁አረጋዊ	-15738
▁ክልሎች	-15739
▁የሚቃወ	-15740
▁የንጉሱ	-15741
▁የአውሮ	-15742
▁የያዘው	-15743
▁ይላልና	-15744
▁ይቆጣጠ	-15745
▁ይጠፋል	-15746
▁cells	-15747
▁fixed	-15748
▁oromo	-15749
▁paths	-15750
▁uriah	-15751
▁ለእርሱም	-15752
▁ለያዕቆብ	-15753
▁ስናደርግ	-15754
▁በአሜሪካ	-15755
▁ባደረጉት	-15756
▁ተቀመጠ።	-15757
▁እንዲሰጡ	-15758
▁ከአንተም	-15759
▁ውስብስብ	-15760
▁የሚመራው	-15761
▁የሚቻለው	-15762
▁የሚወጣው	-15763
▁የቀድሞው	-15764
▁ጳውሎስም	-15765
keepers	-15766
▁bottom	-15767
▁clothe	-15768
▁copies	-15769
▁courts	-15770
▁mortal	-15771
▁naboth	-15772
▁option	-15773
▁pestil	-15774
▁poison	-15775
▁widows	-15776
▁መረጃዎችን	-15777
▁አሞናውያን	-15778
▁እነዚያንም	-15779
▁የሚያገኙት	-15780
▁ያደረጋቸው	-15781
▁inquire	-15782
▁noticed	-15783
▁outlook	-15784
▁warfare	-15785
▁disputes	-15786
▁horsemen	-15787
▁resulted	-15788
▁የእውነተኛውን	-15789
▁disfellow	-15790
▁estimated	-15791
▁lifestyle	-15792
▁preserved	-15793
▁colossians	-15794
▁correspond	-15795
▁federation	-15796
▁historical	-15797
▁pioneering	-15798
▁propaganda	-15799
▁prophesied	-15800
▁supporters	-15801
▁indignation	-15802
▁christianity	-15803
▁commissioner	-15804
ራቱ	-15805
ርጊ	-15806
ሯን	-15807
ሰኝ	-15808
ቀቱ	-15809
እባ	-15810
ዕት	-15811
ዶል	-15812
kan	-15813
urg	-15814
ላለች	-15815
ልኮል	-15816
ምድር	-15817
ሪነት	-15818
ሰሰው	-15819
ብላት	-15820
ነውም	-15821
ወይም	-15822
ያስን	-15823
ፕሊን	-15824
▁ሐሳ	-15825
▁ከር	-15826
▁ዋነ	-15827
▁ዘሩ	-15828
that	-15829
ለታል።	-15830
ዘዛቸው	-15831
▁gom	-15832
▁hit	-15833
▁ህልም	-15834
▁ሳቢያ	-15835
▁ስልክ	-15836
▁ብቸኛ	-15837
▁አሜን	-15838
▁አምራ	-15839
▁አምሳ	-15840
▁አሮጌ	-15841
▁ከራሱ	-15842
▁የቀን	-15843
▁የቅድ	-15844
▁የተቻ	-15845
▁ይስማ	-15846
▁ይኑር	-15847
▁ይገለ	-15848
▁ይፈጸ	-15849
▁ግማሽ	-15850
▁ጠንቋ	-15851
▁ጠየቅ	-15852
▁ፈሳሽ	-15853
aning	-15854
horam	-15855
ighed	-15856
ቶቻቸውም	-15857
▁ህልውና	-15858
▁መኮንን	-15859
▁ማሻሻያ	-15860
▁ታማኝና	-15861
▁ካደረገ	-15862
▁ክብደት	-15863
▁የክልሉ	-15864
▁የወለደ	-15865
▁የፋሲካ	-15866
▁ያስከት	-15867
▁ያዘጋጃ	-15868
lesome	-15869
▁camer	-15870
▁cheer	-15871
▁disag	-15872
▁quant	-15873
▁seats	-15874
▁ለማውጣት	-15875
▁መተማመን	-15876
▁በመምጣት	-15877
▁በጦርነት	-15878
▁ችግሮችን	-15879
▁አንዳችን	-15880
▁እሰጣለሁ	-15881
▁የሌለውን	-15882
▁የሚያህሉ	-15883
▁የማያውቁ	-15884
▁የያእቆብ	-15885
▁የጳውሎስ	-15886
▁ይችላል፤	-15887
▁ፕሬዝዳን	-15888
▁hannah	-15889
▁owners	-15890
▁potter	-15891
▁ማስረጃዎች	-15892
▁አምላካቸው	-15893
▁እናሳያለን	-15894
▁finance	-15895
▁obeying	-15896
▁torture	-15897
▁አለመግባባት	-15898
▁አስፈላጊነት	-15899
▁የእብራይስጥ	-15900
▁ያደርጋል፡፡	-15901
▁audience	-15902
▁commands	-15903
▁gracious	-15904
▁location	-15905
▁properly	-15906
▁scholars	-15907
▁እያንዳንዳችሁ	-15908
▁materials	-15909
▁principal	-15910
▁voluntary	-15911
▁የሚያስፈልገንን	-15912
▁annihilate	-15913
▁privileges	-15914
▁properties	-15915
12	-15916
ሚካ	-15917
ተመ	-15918
ቴል	-15919
አህ	-15920
ኪን	-15921
ክኒ	-15922
የመ	-15923
ድኩ	-15924
ጫን	-15925
ext	-15926
pet	-15927
ህሳስ	-15928
ላትያ	-15929
ልቀት	-15930
ሎጊያ	-15931
መጣም	-15932
ምነቱ	-15933
ሰሉት	-15934
ስራቹ	-15935
ብህም	-15936
ኤልን	-15937
ከለከ	-15938
ውልት	-15939
ገደሉ	-15940
ግልና	-15941
ጠራቀ	-15942
ጠቅም	-15943
ጫወቱ	-15944
▁ሕል	-15945
▁ራቁ	-15946
▁ሺም	-15947
▁ታግ	-15948
▁ትተ	-15949
▁አኳ	-15950
▁ይዳ	-15951
▁ጭቃ	-15952
icks	-15953
ምረዋል	-15954
ዕቆብን	-15955
ድናቆት	-15956
ጠበቂያ	-15957
ጠባበቃ	-15958
▁jun	-15959
▁spy	-15960
▁ሃቀኛ	-15961
▁ህጻን	-15962
▁ለአብ	-15963
▁ሊሰጥ	-15964
▁ቁስል	-15965
▁ቆርጦ	-15966
▁በማያ	-15967
▁ታናሽ	-15968
▁ነፍሶ	-15969
▁አሰበ	-15970
▁ከአቅ	-15971
▁ያለመ	-15972
▁ያገባ	-15973
▁ይታይ	-15974
orous	-15975
pping	-15976
ልተኝነት	-15977
▁ለጥቂት	-15978
▁ሊረዳህ	-15979
▁ሐዋርያ	-15980
▁ቆይቷል	-15981
▁በቅዱስ	-15982
▁በውስጤ	-15983
▁ተመዝግ	-15984
▁ተንኮል	-15985
▁አለቆቹ	-15986
▁አያውቁ	-15987
▁ከሁለቱ	-15988
▁ከጥፋት	-15989
▁ዕውቅና	-15990
▁የሆነን	-15991
▁የተማረ	-15992
▁የወይራ	-15993
▁የፍየል	-15994
▁ያድርግ	-15995
▁ፈጣሪያ	-15996
owered	-15997
▁desir	-15998
▁emerg	-15999
▁model	-16000
▁recru	-16001
▁ለመሥራት	-16002
▁መስከረም	-16003
▁ስራቸውን	-16004
▁ቁጥራቸው	-16005
▁በሦስተኛ	-16006
▁በእንዲህ	-16007
▁እስረኞች	-16008
▁የሕይወት	-16009
▁የሚቃጠሉ	-16010
▁የድርጅቱ	-16011
▁ፍጻሜውን	-16012
atively	-16013
retched	-16014
▁altern	-16015
▁infect	-16016
▁insult	-16017
▁quarre	-16018
▁tested	-16019
▁towers	-16020
▁treaty	-16021
▁ለማዘጋጀት	-16022
▁በሚወስደው	-16023
▁በአንደኛው	-16024
▁አይደለንም	-16025
▁እየተናገረ	-16026
▁የተንጸባረ	-16027
▁dispers	-16028
▁driving	-16029
▁የተደነገገው	-16030
▁ceremony	-16031
▁churches	-16032
▁rendered	-16033
▁ridicule	-16034
▁strongly	-16035
ifications	-16036
▁confirmed	-16037
▁criminals	-16038
▁enjoyment	-16039
▁meanwhile	-16040
▁bridegroom	-16041
▁influenced	-16042
▁punishable	-16043
▁suspension	-16044
▁consultation	-16045
ምብ	-16046
ሞራ	-16047
ስ፣	-16048
ከሻ	-16049
ዛል	-16050
▁ዙ	-16051
gic	-16052
ሃልና	-16053
ህዛብ	-16054
ሬሽን	-16055
ሳሉ።	-16056
ቀደስ	-16057
ባል፤	-16058
ጀርባ	-16059
ጎችን	-16060
ጸልያ	-16061
ጻቸው	-16062
ፈጠሩ	-16063
▁ለከ	-16064
▁ለኮ	-16065
▁ለገ	-16066
▁ላክ	-16067
▁ቅጽ	-16068
▁ብሮ	-16069
▁ከች	-16070
▁ጣኦ	-16071
▁ፕላ	-16072
aker	-16073
ndar	-16074
ራችንን	-16075
ሰዋል።	-16076
ነዚያም	-16077
ናውቀው	-16078
ውያኑን	-16079
ደራላዊ	-16080
ጠራችሁ	-16081
ፈልገን	-16082
▁24,	-16083
▁sha	-16084
▁ለሙሴ	-16085
▁መምጣ	-16086
▁ሙዚቃ	-16087
▁ሽልማ	-16088
▁ንስሐ	-16089
▁አብሬ	-16090
▁አድን	-16091
▁አጋር	-16092
▁ወሰነ	-16093
▁ዓመፀ	-16094
▁የስደ	-16095
▁የተነ	-16096
▁ይመር	-16097
▁ይመጡ	-16098
▁ይረዱ	-16099
▁ጥቅሱ	-16100
▁ፈቃዱ	-16101
▁ፊቴን	-16102
owned	-16103
ሽንግተን	-16104
ባቸዋል።	-16105
▁boys	-16106
▁pier	-16107
▁scen	-16108
▁sore	-16109
▁summ	-16110
▁መምረጥ	-16111
▁መርዶክ	-16112
▁መድረስ	-16113
▁ሲሆን፣	-16114
▁በስውር	-16115
▁አቀፋዊ	-16116
▁እርማት	-16117
▁እንሂድ	-16118
▁እንደአ	-16119
▁ከሰሜን	-16120
▁ከነበረ	-16121
▁የሚፈራ	-16122
▁የኾነን	-16123
▁ጦርነቱ	-16124
orrupt	-16125
▁barak	-16126
▁bonds	-16127
▁drank	-16128
▁rebel	-16129
▁sihon	-16130
▁መቅሰፍት	-16131
▁ሰውየውን	-16132
▁በህይወቱ	-16133
▁በአፍሪካ	-16134
▁በጊልያድ	-16135
▁በፖለቲካ	-16136
▁እንደሚል	-16137
▁እንደምና	-16138
▁እንዲወጣ	-16139
▁የአገሪቱ	-16140
▁የኤፍሬም	-16141
▁የጽህፈት	-16142
uration	-16143
▁ambush	-16144
▁disord	-16145
▁doctor	-16146
▁morrow	-16147
▁oppose	-16148
▁overth	-16149
▁refres	-16150
▁በእነርሱም	-16151
▁የሰጣቸውን	-16152
▁amazing	-16153
▁balance	-16154
▁counter	-16155
▁curtain	-16156
▁letting	-16157
▁smoking	-16158
▁supreme	-16159
▁tempted	-16160
▁wedding	-16161
▁አንዳንዶቹን	-16162
▁እላችኋለሁ፣	-16163
▁የሚያስደስት	-16164
▁overseas	-16165
▁በኢየሩሳሌምም	-16166
▁abilities	-16167
▁involving	-16168
▁neighbour	-16169
▁depression	-16170
▁meaningful	-16171
▁stronghold	-16172
▁nationality	-16173
▁trustworthy	-16174
?»	-16175
ሄል	-16176
መፅ	-16177
ኑና	-16178
አያ	-16179
ወጅ	-16180
ያማ	-16181
don	-16182
gen	-16183
rim	-16184
ለህን	-16185
ልፈው	-16186
ማለሁ	-16187
ራላዊ	-16188
አሁን	-16189
ከሪያ	-16190
ወስዳ	-16191
ውቀት	-16192
ዮንን	-16193
ጠቀስ	-16194
ጭበር	-16195
▁ለየ	-16196
▁ይር	-16197
ague	-16198
held	-16199
ኞቻቸው	-16200
ገነዘባ	-16201
ፈነበት	-16202
▁700	-16203
▁amm	-16204
▁ስውር	-16205
▁ሶስቱ	-16206
▁አመጡ	-16207
▁አውጪ	-16208
▁አዘን	-16209
▁እየነ	-16210
▁ከምታ	-16211
▁ወደም	-16212
▁የንግ	-16213
▁የፌዴ	-16214
▁ይሠራ	-16215
▁ይችሉ	-16216
▁ጉባዔ	-16217
▁ጥለው	-16218
አስታውስ	-16219
▁dogs	-16220
▁sown	-16221
▁wast	-16222
▁ለመላው	-16223
▁ልብሶች	-16224
▁በቀድሞ	-16225
▁በቀጣዩ	-16226
▁በጽዮን	-16227
▁ተፈጥሯ	-16228
▁እውነታ	-16229
▁ከቀድሞ	-16230
▁ያመጣል	-16231
▁ይሄዳሉ	-16232
▁ጠረጴዛ	-16233
▁ፎቶግራ	-16234
▁aston	-16235
▁frame	-16236
▁gebre	-16237
▁gradu	-16238
▁impro	-16239
▁india	-16240
▁pound	-16241
▁scorn	-16242
▁ለመቀነስ	-16243
▁ለመካፈል	-16244
▁ሲያደርግ	-16245
▁ስለሆነው	-16246
▁ስለመሆኑ	-16247
▁በመቶዎች	-16248
▁በከተማው	-16249
▁በዝግመተ	-16250
▁ነበረበት	-16251
▁አልአዛር	-16252
▁አንቀላፋ	-16253
▁ወደሚያስ	-16254
▁የመኖሪያ	-16255
▁የአባቱን	-16256
▁ይመለከታ	-16257
▁12,000	-16258
▁anoint	-16259
▁differ	-16260
▁impact	-16261
▁sector	-16262
▁strict	-16263
▁swords	-16264
▁ስለነበረው	-16265
▁የሆነችውን	-16266
▁የሚመለከት	-16267
▁የሚሰጡትን	-16268
▁የምናገኘው	-16269
▁የተጠቀሱት	-16270
▁economy	-16271
▁imposed	-16272
▁jehoram	-16273
▁missing	-16274
▁section	-16275
▁thunder	-16276
▁whither	-16277
▁መልእክተኞች	-16278
▁እያንዳንዱም	-16279
▁acquired	-16280
▁choosing	-16281
▁informed	-16282
▁ordinary	-16283
▁pictures	-16284
▁villages	-16285
▁extremely	-16286
▁subjected	-16287
▁encourages	-16288
▁persecuted	-16289
▁manufacture	-16290
▁difficulties	-16291
sk	-16292
ታና	-16293
ናቴ	-16294
ኝ፥	-16295
ላህና	-16296
ምላኩ	-16297
ቆጠብ	-16298
ቋንቋ	-16299
ተኩር	-16300
ነፈር	-16301
አልን	-16302
ከዚህ	-16303
ጽሐፉ	-16304
▁ቲቶ	-16305
▁አሽ	-16306
▁ከሶ	-16307
▁ከኮ	-16308
▁የቃ	-16309
felt	-16310
▁103	-16311
▁ማለቱ	-16312
▁ምነው	-16313
▁ብልህ	-16314
▁ቪዲዮ	-16315
▁ተባለ	-16316
▁ትሠራ	-16317
▁አበዛ	-16318
▁አትበ	-16319
▁እወቅ	-16320
▁እያስ	-16321
▁ከድን	-16322
▁ከፊቱ	-16323
▁የወላ	-16324
▁ያከብ	-16325
▁ጠቅሶ	-16326
▁ፍራን	-16327
ashed	-16328
▁fame	-16329
▁jude	-16330
▁lots	-16331
▁nigh	-16332
▁sole	-16333
▁ለዘለቄ	-16334
▁መስበክ	-16335
▁ማሳወቅ	-16336
▁ስርዓት	-16337
▁በአካል	-16338
▁በእርሻ	-16339
▁በጉዳዩ	-16340
▁ባለጸጋ	-16341
▁ተሰምቶ	-16342
▁ተአምር	-16343
▁ታሪካዊ	-16344
▁ታሪኮች	-16345
▁ኃይሎች	-16346
▁አረጋግ	-16347
▁አሳማኝ	-16348
▁ከሆንክ	-16349
▁የሙዚቃ	-16350
▁የተሰኘ	-16351
▁የፖሊስ	-16352
▁ይሰጣሉ	-16353
▁ይዛችሁ	-16354
▁ይጠብቁ	-16355
▁draft	-16356
▁holds	-16357
▁tigre	-16358
▁መሰብሰብ	-16359
▁በመስራት	-16360
▁እንዲሰሩ	-16361
▁የሚወሰን	-16362
▁የምድርን	-16363
▁የትኛውን	-16364
▁የአካባቢ	-16365
▁ያገለግሉ	-16366
▁ይገባዋል	-16367
▁ጓደኛችሁ	-16368
amental	-16369
▁broadc	-16370
▁earned	-16371
▁footst	-16372
▁mutual	-16373
▁namely	-16374
▁shewed	-16375
▁አንዳቸውም	-16376
▁እንደሆነች	-16377
▁የተከለከለ	-16378
▁emperor	-16379
▁shelter	-16380
▁tremble	-16381
▁despised	-16382
▁diligent	-16383
▁redeemed	-16384
▁reliable	-16385
▁trumpets	-16386
▁መልእክተኞችን	-16387
▁heartfelt	-16388
▁protected	-16389
▁reference	-16390
▁religions	-16391
▁trembling	-16392
▁apparently	-16393
▁conducting	-16394
▁instrument	-16395
▁reputation	-16396
▁destination	-16397
▁thessalonians	-16398
መመ	-16399
ሙስ	-16400
ሸገ	-16401
ቅጭ	-16402
ነመ	-16403
ጓደ	-16404
ጣዖ	-16405
ፍያ	-16406
400	-16407
fat	-16408
rat	-16409
ለችም	-16410
ሚነት	-16411
ማረው	-16412
ሰማን	-16413
ስራሽ	-16414
ሷል።	-16415
ተውም	-16416
ትመት	-16417
ጀምሩ	-16418
▁ሀያ	-16419
▁ለሞ	-16420
▁ሱፍ	-16421
▁በሪ	-16422
▁አዙ	-16423
▁ኮሎ	-16424
▁ዜጋ	-16425
ምክንያ	-16426
በልባል	-16427
በርከት	-16428
ከሰተው	-16429
ገኝነት	-16430
▁800	-16431
▁dad	-16432
▁tex	-16433
▁ልባም	-16434
▁ረቂቅ	-16435
▁ቢንያ	-16436
▁ብርታ	-16437
▁ተንኮ	-16438
▁ተገኘ	-16439
▁ከመው	-16440
▁ውድቅ	-16441
▁ያድር	-16442
▁ይዘን	-16443
▁ጥቅል	-16444
▁bone	-16445
▁ease	-16446
▁soil	-16447
▁vote	-16448
▁wold	-16449
▁ህይወቱ	-16450
▁ለሶስት	-16451
▁መንኮራ	-16452
▁በራስህ	-16453
▁ብላቴና	-16454
▁ተቀብሎ	-16455
▁ታደርግ	-16456
▁ነገሠ።	-16457
▁ነገርም	-16458
▁አልፈው	-16459
▁አወድሱ	-16460
▁እናቱን	-16461
▁ከመዳብ	-16462
▁ዜግነት	-16463
▁የሸክላ	-16464
▁ያሳያሉ	-16465
▁ጉልበት	-16466
[...]
